▁xxunk	0
▁xxpad	0
▁xxbos	0
▁xxeos	0
▁xxfld	0
▁xxrep	0
▁xxwrep	0
▁xxup	0
▁xxmaj	0
<unk>	0
.	-3.17904
,	-3.4371
s	-3.67504
▁the	-3.70325
▁to	-3.8428
▁a	-4.00117
▁and	-4.12536
▁of	-4.1396
’	-4.45155
▁that	-4.50898
▁is	-4.5377
▁I	-4.65573
t	-4.66425
ing	-4.67702
▁in	-4.72293
▁	-4.77293
▁it	-4.77757
'	-4.78512
-	-4.79814
▁you	-4.86692
▁are	-5.05216
ed	-5.13442
▁for	-5.15443
▁“	-5.19652
▁be	-5.24187
▁they	-5.26357
▁not	-5.3095
▁with	-5.33769
▁people	-5.42638
▁as	-5.4922
▁have	-5.50071
▁on	-5.50871
?	-5.53149
▁this	-5.56348
ly	-5.56382
d	-5.59692
▁or	-5.6069
▁was	-5.62873
▁their	-5.69891
▁her	-5.71509
/	-5.7306
▁trans	-5.83478
▁about	-5.89786
▁gender	-5.90916
▁who	-5.91845
▁can	-5.97966
▁but	-5.98905
m	-6.03976
▁all	-6.04121
▁she	-6.05048
re	-6.05547
▁don	-6.072
▁The	-6.07457
▁like	-6.08271
▁It	-6.08429
▁your	-6.09792
▁an	-6.11234
▁what	-6.11554
”	-6.13214
▁from	-6.13816
▁just	-6.14026
▁them	-6.16413
▁at	-6.18641
▁by	-6.20182
▁do	-6.2114
▁so	-6.21643
▁if	-6.21839
▁me	-6.21884
▁one	-6.22991
▁would	-6.25423
▁we	-6.25484
—	-6.25785
▁no	-6.26007
I	-6.26573
▁"	-6.26925
:	-6.27683
▁think	-6.31
▁had	-6.32241
▁has	-6.32651
▁more	-6.32683
▁(	-6.38193
▁being	-6.4018
"	-6.44128
▁he	-6.44513
▁my	-6.45327
e	-6.4648
▁out	-6.48353
,”	-6.49165
▁because	-6.49186
▁there	-6.5057
▁women	-6.52069
.”	-6.52172
▁up	-6.56015
▁want	-6.57813
▁children	-6.59056
y	-6.60208
▁They	-6.62325
▁You	-6.66241
▁when	-6.6673
▁will	-6.68223
▁been	-6.68777
▁were	-6.6943
▁transgender	-6.71565
▁even	-6.72043
▁know	-6.7245
▁how	-6.74141
▁But	-6.74743
▁his	-6.75268
▁other	-6.75557
▁way	-6.75867
▁parents	-6.76804
▁us	-6.7891
r	-6.79332
)	-6.79614
▁A	-6.80397
://	-6.81678
▁some	-6.83062
▁say	-6.83137
ve	-6.83824
▁kids	-6.84373
▁And	-6.86796
▁than	-6.87254
▁make	-6.88311
▁which	-6.88605
▁right	-6.88679
a	-6.8898
▁gay	-6.8991
_	-6.9148
▁only	-6.92121
▁into	-6.92143
▁If	-6.93024
al	-6.9367
▁then	-6.95066
▁any	-6.95382
▁should	-6.96232
▁also	-6.96662
;	-6.98433
▁these	-7.00236
▁dysphoria	-7.00252
▁woman	-7.0213
▁most	-7.02321
▁those	-7.03211
▁men	-7.03259
▁said	-7.0395
▁time	-7.04104
▁get	-7.06411
▁identity	-7.07427
▁over	-7.08203
▁life	-7.0901
▁She	-7.10303
▁person	-7.10518
▁http	-7.10882
▁thing	-7.10985
▁much	-7.10998
▁school	-7.11758
▁many	-7.12357
never	-7.13258
▁see	-7.1352
...	-7.13818
▁our	-7.14312
▁really	-7.14944
▁now	-7.16093
com	-7.17954
▁same	-7.1946
▁This	-7.20107
▁In	-7.20581
n	-7.21787
▁social	-7.22003
▁man	-7.22591
▁very	-7.226
▁believe	-7.23825
▁sex	-7.24125
▁point	-7.24686
▁someone	-7.25411
▁going	-7.25807
er	-7.25963
▁mental	-7.26101
▁could	-7.26248
▁own	-7.27276
▁something	-7.27288
▁>	-7.2836
▁try	-7.28705
▁That	-7.28931
www	-7.29192
▁We	-7.29527
▁why	-7.30224
▁go	-7.31738
▁doesn	-7.31744
▁things	-7.32772
▁girls	-7.3541
▁does	-7.36901
▁need	-7.38413
▁years	-7.40354
▁world	-7.41082
the	-7.41128
▁use	-7.41425
▁might	-7.41629
▁good	-7.43854
▁child	-7.43878
▁‘	-7.43892
▁against	-7.45572
▁every	-7.46781
▁transition	-7.46972
▁feel	-7.47297
▁isn	-7.47327
▁new	-7.4779
▁where	-7.47997
▁girl	-7.48289
▁may	-7.48468
The	-7.48913
▁S	-7.48972
▁too	-7.49173
▁still	-7.49636
▁come	-7.4976
▁What	-7.49932
c	-7.50092
▁body	-7.50299
▁Dr	-7.51148
▁back	-7.51288
in	-7.51473
▁wrong	-7.51487
▁medical	-7.52082
or	-7.52257
▁without	-7.52871
▁through	-7.53283
It	-7.54535
▁told	-7.54535
▁un	-7.5459
▁different	-7.55698
▁first	-7.55837
▁off	-7.5603
▁fact	-7.56355
▁take	-7.57018
▁made	-7.5902
▁daughter	-7.59115
▁C	-7.59443
▁push	-7.59802
▁change	-7.60807
▁him	-7.61718
▁There	-7.61743
▁anything	-7.61745
▁left	-7.62363
able	-7.62425
▁after	-7.63063
▁mean	-7.63084
es	-7.64166
p	-7.65658
▁long	-7.65797
▁didn	-7.65903
▁community	-7.66544
▁well	-7.66773
▁lot	-7.67265
▁support	-7.67486
▁reason	-7.67653
▁actually	-7.68069
▁here	-7.68416
▁So	-7.68856
▁health	-7.69324
ll	-7.69476
▁He	-7.6988
▁did	-7.70769
▁family	-7.70859
ther	-7.71704
▁self	-7.72366
▁understand	-7.72836
▁care	-7.73713
▁saying	-7.73861
▁ideology	-7.73897
▁look	-7.74135
and	-7.74517
▁always	-7.74683
▁agree	-7.74969
▁anyone	-7.75539
▁T	-7.76054
o	-7.76382
▁No	-7.78261
▁P	-7.78545
▁help	-7.79183
▁B	-7.79236
▁before	-7.80111
▁everyone	-7.8014
▁around	-7.80222
▁down	-7.80963
▁themselves	-7.81742
▁surgery	-7.81785
on	-7.81995
▁hate	-7.8212
▁real	-7.8222
▁another	-7.82588
▁give	-7.82836
▁young	-7.83512
trans	-7.84877
▁testosterone	-7.85108
▁sure	-7.85115
▁female	-7.85149
▁issue	-7.85987
▁society	-7.86005
You	-7.86839
▁having	-7.86847
▁male	-7.87028
▁live	-7.87164
▁else	-7.87676
▁such	-7.8768
▁while	-7.87701
▁two	-7.8858
b	-7.88596
S	-7.88617
▁Gender	-7.88785
▁thought	-7.89281
▁consider	-7.89416
▁human	-7.89582
ion	-7.89733
▁sexual	-7.90912
▁population	-7.91236
▁often	-7.91257
▁problem	-7.91399
se	-7.92411
▁am	-7.92574
▁less	-7.92616
B	-7.92872
▁find	-7.9296
A	-7.93042
▁part	-7.93051
▁enough	-7.93058
g	-7.94373
▁kind	-7.94468
▁year	-7.94528
▁making	-7.94919
▁media	-7.94964
▁far	-7.95159
*	-7.9528
▁i	-7.95712
▁therapy	-7.95899
▁ever	-7.95911
▁name	-7.96331
▁friends	-7.96441
▁For	-7.96579
▁talking	-7.96692
▁D	-7.96992
▁high	-7.97363
=	-7.98273
to	-7.99044
▁under	-8.00472
▁hard	-8.00581
▁Trans	-8.00698
▁normal	-8.00736
▁put	-8.00779
▁M	-8.01256
▁experience	-8.02191
▁E	-8.03191
it	-8.03563
i	-8.03734
▁little	-8.03771
▁best	-8.04195
▁pronouns	-8.04216
▁mother	-8.04282
▁boy	-8.04309
▁adolescent	-8.04321
▁group	-8.04346
▁day	-8.04478
▁nothing	-8.04829
▁turn	-8.04852
en	-8.054
!	-8.0542
▁*	-8.05503
▁call	-8.05925
▁As	-8.05952
▁whole	-8.06076
▁seems	-8.06177
▁adolescents	-8.06331
▁least	-8.06873
▁few	-8.06874
▁public	-8.07398
v	-8.07568
▁question	-8.07643
▁got	-8.07801
▁aren	-8.07998
▁show	-8.08021
▁talk	-8.08134
an	-8.08172
▁doing	-8.08637
gender	-8.08823
▁idea	-8.0957
▁seem	-8.09765
▁age	-8.09795
f	-8.09938
▁control	-8.1022
▁says	-8.10354
▁work	-8.11281
▁hormones	-8.11921
▁adult	-8.12022
▁become	-8.12049
▁sense	-8.12383
▁tell	-8.1251
▁claim	-8.1253
ity	-8.13357
▁let	-8.13431
th	-8.13578
le	-8.14108
▁word	-8.14347
▁side	-8.1438
▁percent	-8.1571
▁between	-8.15744
▁LGBTQ	-8.15858
less	-8.16119
ce	-8.16441
▁non	-8.16843
▁must	-8.16884
u	-8.17247
▁stop	-8.17292
▁-	-8.17532
▁keep	-8.18095
▁[	-8.18248
▁allow	-8.18769
▁state	-8.18787
▁both	-8.18934
▁others	-8.19105
▁issues	-8.1919
▁already	-8.19248
▁truth	-8.19281
▁course	-8.19285
http	-8.19596
C	-8.19598
▁simply	-8.20453
▁found	-8.20553
▁called	-8.21172
▁biological	-8.21279
▁makes	-8.21454
not	-8.21477
ic	-8.21767
▁Her	-8.21778
▁sports	-8.21881
▁mind	-8.21915
▁pretty	-8.22935
k	-8.2297
▁Transgender	-8.23127
▁adults	-8.23299
is	-8.23564
▁exist	-8.23706
▁shit	-8.24251
▁See	-8.24287
▁away	-8.24499
▁though	-8.2455
▁start	-8.24989
▁big	-8.25281
l	-8.25479
x	-8.25525
▁force	-8.25655
▁certain	-8.26711
▁important	-8.26711
▁true	-8.26731
▁therapist	-8.26742
▁means	-8.2763
▁students	-8.27702
.>	-8.27827
▁everything	-8.28016
▁government	-8.28045
▁its	-8.28047
▁among	-8.28088
▁Not	-8.28699
▁today	-8.2871
▁great	-8.289
▁F	-8.29196
▁lives	-8.2921
▁each	-8.29323
▁straight	-8.2936
▁case	-8.29473
lmost	-8.29626
▁love	-8.30331
▁matter	-8.30766
▁When	-8.30801
▁treatment	-8.30838
▁words	-8.30956
▁To	-8.31118
transgender	-8.31195
▁re	-8.31359
".	-8.31933
▁argument	-8.32221
▁1	-8.33353
▁speech	-8.33374
▁Littman	-8.33374
▁home	-8.33396
▁better	-8.33413
▁puberty	-8.3344
▁American	-8.33601
▁patients	-8.33954
).	-8.33979
ies	-8.34151
ous	-8.34295
T	-8.34424
▁rights	-8.34481
▁since	-8.34521
▁literally	-8.34811
▁end	-8.3578
▁agenda	-8.36227
▁physical	-8.36227
est	-8.36559
▁Why	-8.36683
▁bad	-8.36795
h	-8.37167
▁ra	-8.3724
ary	-8.37487
▁cause	-8.37495
▁won	-8.37616
▁seen	-8.37858
▁book	-8.37936
%	-8.38139
If	-8.38446
ness	-8.38535
▁doctors	-8.3901
▁internet	-8.39051
▁yet	-8.39119
▁story	-8.39132
▁done	-8.39328
▁likely	-8.39997
▁political	-8.4009
▁began	-8.4054
▁God	-8.40615
▁whatever	-8.40626
▁kid	-8.40971
▁L	-8.41086
▁wanted	-8.41212
▁wasn	-8.4188
▁instead	-8.4202
▁again	-8.42021
▁money	-8.4203
▁probab	-8.42192
▁based	-8.42277
org	-8.43366
▁until	-8.43535
▁open	-8.43577
▁blockers	-8.43721
▁hormone	-8.44072
out	-8.44997
▁yourself	-8.45089
▁post	-8.45199
▁schools	-8.4543
ecause	-8.45503
▁old	-8.45622
▁read	-8.45714
▁boys	-8.45831
▁accept	-8.46621
▁Be	-8.46649
▁reality	-8.46706
M	-8.4672
▁Just	-8.46813
▁One	-8.46881
▁Man	-8.46983
▁started	-8.47365
▁law	-8.47423
▁seemed	-8.47489
▁On	-8.47638
▁Are	-8.4802
▁2	-8.48031
▁opposite	-8.48216
▁knew	-8.48216
▁majority	-8.48224
▁etc	-8.48375
▁comment	-8.48477
▁b	-8.48877
▁identify	-8.48957
▁de	-8.49258
),	-8.49328
w	-8.49685
▁evidence	-8.4983
ers	-8.499
▁hair	-8.49945
▁getting	-8.49965
▁friend	-8.50198
▁example	-8.50468
▁wouldn	-8.50769
ment	-8.50936
▁disagree	-8.51447
]	-8.51464
▁surgeries	-8.51469
▁stupid	-8.5147
▁either	-8.51471
▁large	-8.51472
▁went	-8.51722
▁whe	-8.51777
▁place	-8.52337
▁full	-8.52412
▁transitioning	-8.52486
3	-8.52806
ive	-8.52876
▁suicide	-8.53157
man	-8.53191
▁last	-8.53204
▁maybe	-8.53212
▁completely	-8.5328
▁given	-8.5332
?”	-8.53489
▁once	-8.53732
0	-8.54003
▁parent	-8.54066
No	-8.54147
They	-8.54366
▁R	-8.54437
▁movement	-8.5485
▁Peterson	-8.54882
▁science	-8.54971
as	-8.55219
▁culture	-8.5565
identified	-8.55668
▁class	-8.55681
What	-8.55695
▁opinion	-8.55721
ought	-8.56044
sex	-8.56052
ar	-8.56183
▁All	-8.56229
+	-8.56554
▁language	-8.56577
▁Sally	-8.56604
▁&	-8.57091
ily	-8.57496
](	-8.58313
▁Also	-8.58394
▁ago	-8.58819
▁My	-8.59038
So	-8.5932
▁patient	-8.59442
▁At	-8.59979
▁America	-8.60045
taking	-8.60053
▁Julie	-8.60103
▁system	-8.60119
▁became	-8.60138
▁Do	-8.60155
▁history	-8.60165
4	-8.60629
id	-8.60754
▁power	-8.60834
That	-8.61054
▁source	-8.61234
▁article	-8.61582
all	-8.6166
te	-8.61685
There	-8.61781
▁abuse	-8.61923
▁Jordan	-8.61936
▁Or	-8.62018
▁People	-8.62143
This	-8.62907
▁f	-8.62947
▁research	-8.63543
▁illness	-8.63723
▁depression	-8.63789
▁Like	-8.63838
▁born	-8.63957
ok	-8.64222
▁asked	-8.64373
D	-8.64754
us	-8.64944
▁rate	-8.64962
ation	-8.65605
▁myself	-8.65671
▁answer	-8.65705
▁sub	-8.65706
▁longer	-8.65884
▁shouldn	-8.66048
▁individuals	-8.66255
▁realize	-8.66255
▁activists	-8.66383
1	-8.66714
▁individual	-8.66993
▁definition	-8.67009
▁term	-8.67231
▁actual	-8.67237
▁teenage	-8.67514
▁birth	-8.67624
▁LGBT	-8.67644
▁share	-8.6774
▁N	-8.68009
▁ask	-8.68769
▁effects	-8.68971
▁common	-8.69206
▁e	-8.69284
▁YouTube	-8.6941
▁THE	-8.69524
▁next	-8.69561
▁country	-8.69583
▁understanding	-8.70025
▁2019,	-8.7032
....	-8.70687
▁job	-8.70955
▁K	-8.71225
▁possible	-8.71535
▁California	-8.71544
▁later	-8.71609
▁exactly	-8.71612
7	-8.71713
▁J	-8.71899
8	-8.71999
▁fit	-8.72146
▁along	-8.7218
▁By	-8.72278
of	-8.7276
ally	-8.72825
▁lead	-8.72864
▁face	-8.73097
▁generation	-8.73121
bsolutely	-8.73128
▁harm	-8.73194
▁current	-8.73243
ne	-8.73282
▁al	-8.73488
▁attempt	-8.73575
▁living	-8.73575
▁alone	-8.73586
▁p	-8.73631
▁Even	-8.737
▁goes	-8.73793
▁fuck	-8.74752
Well	-8.74822
▁mention	-8.75097
▁telling	-8.75322
2	-8.75643
▁stuff	-8.75659
▁regard	-8.75675
▁therapists	-8.75679
▁present	-8.75687
▁herself	-8.75705
▁Now	-8.75715
▁hand	-8.76497
ting	-8.76818
▁times	-8.77139
▁level	-8.77252
▁discussion	-8.77277
▁view	-8.7734
▁topic	-8.77357
P	-8.77478
▁calling	-8.77562
▁wish	-8.77734
▁easy	-8.77786
▁merely	-8.77798
▁provide	-8.778
▁popular	-8.77913
▁online	-8.77947
▁feeling	-8.78638
▁et	-8.78927
ism	-8.7897
We	-8.79294
▁risk	-8.79492
▁choice	-8.79518
▁number	-8.79671
9	-8.79753
▁choose	-8.7996
▁confused	-8.80068
▁white	-8.8007
▁gone	-8.80097
▁top	-8.80184
▁heard	-8.80311
▁happening	-8.80489
▁seeing	-8.8053
▁How	-8.80679
ry	-8.80688
▁dis	-8.80892
▁4	-8.81276
▁wants	-8.81278
▁drag	-8.8158
quite	-8.8174
▁conservative	-8.81897
▁Katherine	-8.82212
▁religious	-8.82232
▁came	-8.82267
▁Health	-8.8229
."	-8.82299
▁decided	-8.82507
▁coming	-8.82545
ty	-8.82717
▁prove	-8.83032
▁12	-8.83213
▁free	-8.83427
▁treat	-8.83861
▁beliefs	-8.84351
▁respect	-8.8441
▁studies	-8.84458
▁single	-8.84464
▁Mary	-8.84526
▁happy	-8.84546
▁anti	-8.84585
▁couldn	-8.84811
▁allowed	-8.85604
▁rest	-8.85618
ent	-8.86008
▁lie	-8.86269
▁2018	-8.86477
▁3	-8.86478
▁guess	-8.86781
▁attention	-8.86781
▁sort	-8.86799
hose	-8.86819
news	-8.86833
▁clinic	-8.86868
▁watch	-8.86898
▁study	-8.86902
ch	-8.86911
▁referr	-8.86919
▁set	-8.87025
be	-8.87345
▁debate	-8.87371
at	-8.87595
G	-8.87626
▁rules	-8.87979
▁breasts	-8.88052
▁fight	-8.88276
Why	-8.88299
that	-8.88344
L	-8.88874
▁form	-8.89015
▁New	-8.89107
▁strong	-8.89161
▁Helena	-8.89162
▁felt	-8.89162
▁companies	-8.89163
▁especially	-8.89167
▁amount	-8.89194
▁identities	-8.89194
▁order	-8.89231
▁scientific	-8.89256
▁front	-8.89396
▁bring	-8.89787
▁teenagers	-8.89961
ist	-8.90219
▁pre	-8.90581
E	-8.90651
Trans	-8.90709
▁ga	-8.9074
▁within	-8.91104
▁br	-8.91298
▁hold	-8.91318
▁college	-8.91326
▁decision	-8.91475
▁small	-8.91529
▁6	-8.91573
▁Women	-8.91719
▁deal	-8.91752
▁co	-8.91908
▁general	-8.91921
”—	-8.92263
▁fear	-8.93318
▁explain	-8.93396
z	-8.94011
▁personal	-8.94291
In	-8.94298
▁feelings	-8.94653
▁according	-8.95084
6	-8.95204
old	-8.95878
▁G	-8.96111
▁psychological	-8.9627
▁entire	-8.96276
▁desire	-8.9635
▁traditional	-8.96369
▁remember	-8.96665
▁simple	-8.96666
▁similar	-8.96678
▁Benji	-8.96745
▁Some	-8.96769
during	-8.96788
▁Who	-8.96911
▁H	-8.97103
▁meaning	-8.97236
▁meant	-8.97812
H	-8.97821
▁ones	-8.98136
▁hear	-8.98195
▁war	-8.98275
How	-8.98425
▁sudden	-8.98909
F	-8.98932
▁offer	-8.99053
▁clear	-8.99151
▁behavior	-8.99156
▁genuine	-8.99297
▁behind	-8.9931
▁past	-8.99336
bi	-8.99349
▁perhaps	-8.99378
▁Maybe	-8.99391
▁doctor	-8.99444
▁race	-8.99449
▁belief	-8.99453
▁construct	-8.99937
▁cover	-8.99948
▁W	-9.00257
▁theory	-9.00841
▁news	-9.00933
▁grow	-9.00935
▁videos	-9.01024
▁youth	-9.01253
▁pro	-9.01455
▁daughters	-9.01672
▁trouble	-9.01692
▁pushed	-9.01713
▁natural	-9.01762
they	-9.01892
▁anxiety	-9.02036
Y	-9.02037
▁However	-9.02045
▁lol	-9.02067
▁middle	-9.02086
▁three	-9.02107
youtube	-9.02214
▁suddenly	-9.02399
▁correct	-9.02423
▁hope	-9.02638
▁play	-9.02685
▁looking	-9.02751
▁teens	-9.03148
▁pain	-9.03165
▁Then	-9.03491
▁teachers	-9.03606
▁head	-9.03688
And	-9.03782
#	-9.03853
&	-9.03896
watch	-9.0391
▁wing	-9.04483
▁contagion	-9.04777
▁particular	-9.04777
▁comfortable	-9.04795
▁Identity	-9.04839
▁grade	-9.04876
▁masculine	-9.04912
▁difference	-9.04978
▁Mos	-9.05012
▁condition	-9.05015
▁guy	-9.05031
▁bit	-9.05277
▁ideas	-9.05759
▁argue	-9.05981
▁opinions	-9.06141
▁changed	-9.06381
▁act	-9.06619
▁socially	-9.07215
▁refer	-9.07463
▁distress	-9.07634
▁Dysphoria	-9.07634
▁several	-9.07647
▁childhood	-9.07654
▁consent	-9.07676
▁fall	-9.0772
▁pride	-9.07725
▁feminine	-9.07773
▁religion	-9.07781
▁taken	-9.07965
▁yes	-9.08103
▁conservatives	-9.08208
▁known	-9.08469
un	-9.08499
▁follow	-9.08983
▁groups	-9.09021
▁includ	-9.09148
harm	-9.09226
▁reasons	-9.0923
>	-9.09368
▁move	-9.0939
▁continue	-9.09537
▁roles	-9.09593
year	-9.09744
Yes	-9.09762
but	-9.09955
▁18	-9.1025
▁cases	-9.10357
▁June	-9.10575
▁York	-9.10575
▁process	-9.10575
▁fine	-9.10596
▁anymore	-9.10599
▁pay	-9.10601
▁Chase	-9.10615
▁immediately	-9.10618
▁specific	-9.10624
▁5	-9.1063
▁average	-9.10702
▁assume	-9.10795
▁near	-9.10911
▁conversation	-9.10937
▁relationship	-9.10979
▁thinking	-9.11076
▁lesbian	-9.1116
de	-9.11988
▁mothers	-9.12007
▁minors	-9.12116
▁pass	-9.12263
▁laws	-9.12312
▁comments	-9.12481
▁speak	-9.12722
▁protect	-9.13034
O	-9.13116
▁treatments	-9.13302
▁short	-9.13484
▁heterosexual	-9.13567
▁takes	-9.13581
▁subject	-9.13582
ember	-9.136
▁stay	-9.13606
▁wrote	-9.13606
▁lack	-9.13609
▁team	-9.13621
▁violence	-9.13621
▁worth	-9.13647
▁May	-9.13648
▁cool	-9.13761
▁involved	-9.13887
▁entirely	-9.14068
▁transphobic	-9.14274
▁cross	-9.14282
▁2016	-9.14294
▁compete	-9.14363
fully	-9.1441
▁treated	-9.1445
▁affirming	-9.14517
el	-9.14534
▁speaking	-9.14564
▁questions	-9.1483
▁members	-9.15113
▁drugs	-9.1516
▁asking	-9.15244
▁U	-9.15426
▁dress	-9.15557
▁destroy	-9.16133
My	-9.16142
▁extreme	-9.16335
▁require	-9.16526
▁spoke	-9.16652
▁sound	-9.16734
▁himself	-9.16741
▁families	-9.16746
▁sometimes	-9.16774
▁outside	-9.16784
▁bodies	-9.16831
▁Reddit	-9.16883
so	-9.17003
she	-9.17022
▁needed	-9.17082
▁cut	-9.17119
▁mis	-9.17167
▁brain	-9.17172
▁conspiracy	-9.17245
▁month	-9.17405
5	-9.17441
▁claims	-9.17628
▁10	-9.17644
▁learn	-9.18422
▁nor	-9.18669
▁appear	-9.18738
j	-9.18793
Gender	-9.19097
▁identifying	-9.19105
▁months	-9.19308
▁Journal	-9.19435
▁address	-9.19584
–	-9.19703
▁academic	-9.19956
▁focus	-9.19958
▁moment	-9.19967
▁His	-9.19996
▁After	-9.20002
▁across	-9.20052
▁spread	-9.20057
▁deny	-9.2006
▁cult	-9.2008
▁half	-9.20172
▁Don	-9.20476
▁situation	-9.2058
▁views	-9.206
if	-9.20797
ble	-9.20836
▁student	-9.20906
▁Yes	-9.20945
U	-9.21401
ur	-9.21414
▁Re	-9.21957
▁decades	-9.22091
like	-9.22364
no	-9.22373
She	-9.22462
▁met	-9.22541
▁define	-9.22637
▁problems	-9.22679
▁target	-9.22725
▁Can	-9.22788
▁tend	-9.22867
▁convince	-9.22897
▁decide	-9.22995
▁trend	-9.23223
▁lose	-9.2323
▁stories	-9.2329
▁hurt	-9.2329
▁voice	-9.2329
▁marriage	-9.2329
▁multiple	-9.23291
▁nice	-9.23294
▁chance	-9.23297
▁negative	-9.23305
▁Zucker	-9.23306
▁avoid	-9.23306
▁father	-9.23309
▁itself	-9.23483
▁spen	-9.23533
▁stereotypes	-9.23604
▁spend	-9.23674
ine	-9.23721
▁early	-9.23958
▁wearing	-9.24013
▁cis	-9.24063
▁statement	-9.24088
▁result	-9.24107
▁position	-9.24124
▁disorder	-9.24126
il	-9.244
▁recognize	-9.24997
we	-9.25294
▁giv	-9.25384
N	-9.25393
▁2015	-9.25681
you	-9.25728
ify	-9.25821
ir	-9.26125
▁humans	-9.26292
led	-9.2633
▁obvious	-9.26346
one	-9.26352
▁create	-9.26504
ability	-9.2659
▁safe	-9.26732
▁narrative	-9.26738
▁rush	-9.26738
▁nature	-9.26738
▁mass	-9.26748
▁Michael	-9.26755
▁adolescence	-9.26755
parental	-9.26758
▁existence	-9.26769
▁perfect	-9.26785
▁supposed	-9.26785
▁advice	-9.26786
▁With	-9.26786
article	-9.26808
▁walk	-9.2681
▁changing	-9.26815
▁label	-9.26849
▁information	-9.26895
▁woke	-9.2697
▁sexuality	-9.26989
▁attack	-9.2709
▁states	-9.27283
▁generally	-9.27402
wing	-9.27545
▁account	-9.276
▁concept	-9.27655
▁professional	-9.27739
▁Un	-9.27793
.)	-9.2785
▁join	-9.27854
▁toward	-9.28238
ical	-9.28472
▁close	-9.28478
age	-9.28605
.2	-9.28777
ful	-9.28898
▁stand	-9.29299
▁pretend	-9.29357
ish	-9.29519
▁suggest	-9.29644
▁expect	-9.29745
▁encourage	-9.29903
▁describe	-9.29927
▁report	-9.2993
▁necessar	-9.3017
▁further	-9.30309
▁perspective	-9.3031
▁dumb	-9.30325
▁data	-9.30367
ck	-9.304
▁Children	-9.30422
▁buy	-9.30439
▁fun	-9.30584
▁suicidal	-9.30613
▁ill	-9.30749
▁numbers	-9.30934
▁risks	-9.3094
▁created	-9.30978
▁response	-9.31227
▁regret	-9.31389
▁effect	-9.31413
binary	-9.31424
▁terms	-9.31515
▁shows	-9.31741
▁figure	-9.31814
▁believes	-9.32231
▁experiences	-9.32275
for	-9.32944
▁professionals	-9.32979
▁wait	-9.33023
W	-9.3311
▁changes	-9.33372
▁private	-9.33588
▁imagine	-9.33607
▁increase	-9.33677
cannot	-9.3369
▁weird	-9.33929
▁easily	-9.34013
▁food	-9.34013
▁serve	-9.34013
▁truly	-9.34014
▁remain	-9.34017
▁shift	-9.34026
▁subreddit	-9.3403
▁evolution	-9.34031
▁Maddie	-9.34032
▁eventually	-9.34036
▁US	-9.34042
▁saw	-9.34064
▁five	-9.34069
▁false	-9.34092
▁tried	-9.34116
▁stopped	-9.34118
▁acceptance	-9.34124
▁dangerous	-9.34137
▁reach	-9.34204
TER	-9.34291
▁moral	-9.34327
▁O	-9.34368
are	-9.34461
tic	-9.3462
▁eyes	-9.34665
▁V	-9.34798
▁bigot	-9.34875
▁hundreds	-9.35164
▁week	-9.35182
▁doubt	-9.35201
▁role	-9.35387
▁heart	-9.35485
ors	-9.3554
▁fucking	-9.35742
▁goal	-9.35883
▁happens	-9.36519
“	-9.36621
status	-9.36977
▁ways	-9.37392
▁interest	-9.37623
▁happen	-9.37757
▁approach	-9.37846
%20	-9.37856
▁Education	-9.37859
▁future	-9.37859
▁leave	-9.3786
▁Association	-9.3786
▁save	-9.37862
▁facts	-9.37874
▁defend	-9.3788
▁minority	-9.37883
▁usual	-9.37973
▁r	-9.37977
▁house	-9.37983
ng	-9.37998
▁banned	-9.38078
▁identification	-9.38083
▁rare	-9.38124
▁Their	-9.38276
▁clearly	-9.38436
nna	-9.38627
▁include	-9.38661
▁pretending	-9.38899
▁couple	-9.39098
▁16	-9.39114
cis	-9.39207
▁Christian	-9.39238
▁decade	-9.39283
▁video	-9.39291
200	-9.39592
ter	-9.39606
▁valid	-9.39668
ance	-9.39734
▁test	-9.40276
▁accepting	-9.40291
▁add	-9.4048
what	-9.40879
gov	-9.40964
But	-9.41003
male	-9.41051
▁con	-9.41357
▁fair	-9.41463
▁haven	-9.41474
ia	-9.41664
▁honest	-9.41717
▁dysphoric	-9.41859
▁medicine	-9.41859
▁knowledge	-9.41859
▁taught	-9.41859
▁third	-9.4186
▁water	-9.41862
▁page	-9.41869
▁worse	-9.41875
▁orientation	-9.41879
▁bullshit	-9.4188
▁politicians	-9.41922
▁While	-9.41926
▁league	-9.41957
▁nobody	-9.42015
ny	-9.4202
▁significant	-9.42021
▁anyway	-9.42057
ie	-9.42107
▁four	-9.4213
▁low	-9.42152
▁aware	-9.42276
▁raise	-9.42376
▁step	-9.42464
▁reported	-9.42532
▁11	-9.43
▁accepted	-9.43418
▁feels	-9.43434
▁line	-9.43713
▁values	-9.43773
▁willing	-9.43852
due	-9.43894
▁gets	-9.44224
▁action	-9.44274
▁20	-9.44354
co	-9.44423
▁insist	-9.44661
ho	-9.44838
▁suffer	-9.45051
nc	-9.45154
nt	-9.45461
▁serious	-9.45632
▁emotional	-9.45664
▁societ	-9.45863
ling	-9.45887
▁period	-9.45889
Q	-9.4592
▁vari	-9.45965
▁second	-9.46001
▁Twitter	-9.46026
▁difficult	-9.46026
▁sorry	-9.46026
▁Day	-9.46027
▁Blanchard	-9.46029
▁blood	-9.4603
▁otherwise	-9.46054
▁Bible	-9.4607
▁admit	-9.4608
▁huge	-9.46104
▁represent	-9.46105
▁letter	-9.46122
▁development	-9.46139
▁Gay	-9.46157
▁perceive	-9.46177
▁19	-9.46199
▁transgenderism	-9.46269
▁access	-9.46316
▁noticed	-9.46322
▁policy	-9.46383
▁despi	-9.46465
▁Of	-9.46494
▁happened	-9.46677
▁upon	-9.46832
▁healthy	-9.46843
▁vote	-9.47197
day	-9.47297
natal	-9.47301
▁2.	-9.47367
▁bother	-9.47394
ely	-9.47444
▁pressure	-9.47618
▁black	-9.47644
▁mom	-9.47748
he	-9.47893
▁days	-9.4813
▁Here	-9.48161
▁listen	-9.48465
ual	-9.48594
▁Hav	-9.487
▁names	-9.49034
▁ex	-9.49122
He	-9.49246
ory	-9.49329
▁Elliot	-9.49375
Yeah	-9.49446
▁...	-9.49456
affirmative	-9.49466
▁9	-9.50127
▁engage	-9.50224
▁dead	-9.50261
▁category	-9.50374
▁epidemic	-9.50374
▁together	-9.50375
▁biology	-9.50376
▁countries	-9.50376
▁university	-9.50377
▁easier	-9.50387
▁upset	-9.50389
▁direction	-9.50392
▁business	-9.50396
▁modern	-9.50402
▁author	-9.50402
▁manner	-9.50405
ta	-9.50426
▁homosexuality	-9.50457
up	-9.50501
▁discovered	-9.50534
▁typical	-9.50546
▁politics	-9.5055
▁throw	-9.50595
ever	-9.5062
▁appropriate	-9.50676
▁block	-9.50803
▁wear	-9.50834
▁required	-9.51032
ted	-9.51047
▁defin	-9.51201
ach	-9.51246
▁personally	-9.5125
▁teaching	-9.51295
cy	-9.5155
▁States	-9.51617
▁demand	-9.51619
▁works	-9.51824
sh	-9.51907
▁caus	-9.51911
▁playing	-9.51917
▁3.	-9.51927
▁instance	-9.52119
▁freedom	-9.52185
▁weren	-9.52192
▁School	-9.52253
▁flag	-9.52277
▁benefit	-9.52287
▁teacher	-9.524
▁14	-9.52427
▁reading	-9.53137
ha	-9.53152
▁De	-9.53179
HAP	-9.53625
▁legal	-9.5365
▁teach	-9.53874
twitter	-9.54025
Oh	-9.54052
▁towards	-9.54243
▁radical	-9.54248
▁seek	-9.54263
▁acknowledge	-9.54584
▁divide	-9.54591
term	-9.54693
▁mistake	-9.54843
▁civil	-9.54878
▁sad	-9.54917
▁McHugh	-9.54919
▁military	-9.54919
▁okay	-9.54919
pdf	-9.5492
▁Knowles	-9.5492
▁clothes	-9.5492
From	-9.5492
▁bunch	-9.54922
▁vast	-9.54922
▁propaganda	-9.54927
▁basically	-9.54934
▁OP	-9.54939
▁proof	-9.54948
▁NY	-9.54949
ant	-9.5496
▁progressive	-9.54995
▁craze	-9.55023
▁Pride	-9.55031
▁however	-9.55046
▁afraid	-9.55054
▁definit	-9.5507
▁critical	-9.551
▁necessary	-9.55121
▁older	-9.55134
▁c	-9.55152
▁Care	-9.552
preferred	-9.5524
▁misgendering	-9.55267
▁obviously	-9.55464
▁reddit	-9.55515
▁***	-9.55524
▁NOT	-9.55568
being	-9.55949
ate	-9.55951
▁suffering	-9.55973
▁mentioned	-9.56258
▁spaces	-9.56471
gust	-9.56809
▁area	-9.56872
▁onto	-9.56935
▁room	-9.56951
▁1.	-9.57063
▁link	-9.57069
▁sign	-9.57136
▁breast	-9.57163
fa	-9.57525
ccording	-9.57815
▁perform	-9.57828
▁kill	-9.58207
▁causes	-9.58746
When	-9.58821
transphobic	-9.58836
um	-9.58895
forcing	-9.58954
▁adopt	-9.59019
▁meet	-9.59041
V	-9.5919
▁matters	-9.59271
her	-9.59521
▁males	-9.5953
▁An	-9.59659
▁Catholic	-9.59661
▁obtain	-9.59681
▁shut	-9.59681
▁pharma	-9.59681
▁plenty	-9.59688
▁basis	-9.59689
▁University	-9.59692
▁death	-9.59696
▁crazy	-9.59705
▁prominent	-9.59708
▁education	-9.5971
ober	-9.59724
▁perception	-9.59789
▁JP	-9.59791
▁insane	-9.59839
▁assigned	-9.59851
▁apart	-9.59991
ning	-9.60088
▁guns	-9.60526
▁protected	-9.60641
▁influencers	-9.60792
ating	-9.60853
▁sides	-9.60949
ad	-9.61107
nd	-9.6119
ization	-9.61459
how	-9.61488
▁manage	-9.61736
▁sexually	-9.61821
K	-9.61893
▁effort	-9.62032
▁peer	-9.62081
▁points	-9.62127
▁minor	-9.6221
▁actions	-9.62771
▁/	-9.6347
Z	-9.63764
▁assault	-9.6401
▁Every	-9.64012
bid	-9.6419
▁thoughts	-9.64258
▁sick	-9.64462
▁experiment	-9.64591
▁Kaufman	-9.64681
▁behaviour	-9.64681
▁deserve	-9.64681
▁written	-9.64681
▁instruction	-9.64681
▁nonsense	-9.64681
▁evil	-9.64683
▁therefore	-9.64683
▁apply	-9.64684
html	-9.64684
wiki	-9.64684
▁police	-9.64685
▁return	-9.64687
▁cancer	-9.64688
▁color	-9.64688
▁illegal	-9.6469
▁interpretation	-9.64696
▁skin	-9.64703
▁Today	-9.64711
▁percentage	-9.64723
▁sent	-9.64731
▁womanhood	-9.64735
▁expression	-9.64741
▁severe	-9.64756
▁related	-9.64789
▁females	-9.64793
▁incorrect	-9.64801
▁mainstream	-9.64802
▁bigotry	-9.64816
▁DSM	-9.6484
▁cultural	-9.64843
ain	-9.64849
▁Young	-9.64862
pe	-9.64862
▁neither	-9.64885
▁More	-9.6491
▁logical	-9.64996
▁Sex	-9.65059
▁informed	-9.65184
▁prevent	-9.65208
ma	-9.65221
▁reduce	-9.65299
?>	-9.6539
▁lost	-9.65404
▁naturally	-9.6542
▁measure	-9.65536
▁17	-9.65613
▁learned	-9.65639
tion	-9.65749
ping	-9.65968
▁ban	-9.66164
▁becomes	-9.66304
▁following	-9.66359
am	-9.66367
▁growing	-9.66619
▁battle	-9.66772
▁highly	-9.66791
▁touch	-9.66817
▁miss	-9.67094
▁car	-9.67261
▁rule	-9.67356
▁member	-9.67362
ible	-9.67376
▁standard	-9.67389
ure	-9.68397
[	-9.68494
▁affirm	-9.6859
▁8	-9.68653
▁breath	-9.68695
▁Uni	-9.68734
right	-9.68774
nce	-9.68918
conspiracy	-9.69077
hate	-9.69123
gay	-9.69136
▁en	-9.69145
Transgender	-9.69152
▁reject	-9.69301
ized	-9.69367
uch	-9.69483
by	-9.69759
▁influence	-9.69821
▁church	-9.69885
▁interact	-9.69905
▁Sexual	-9.69917
▁Gayatri	-9.69944
▁Instead	-9.69944
▁advantage	-9.69944
▁beyond	-9.69944
▁website	-9.69944
▁enjoy	-9.6995
▁involve	-9.69951
▁Edit	-9.69953
▁bot	-9.69955
▁Parents	-9.69957
▁distinction	-9.69958
International	-9.69961
▁basic	-9.69963
▁distraction	-9.69971
▁Meredith	-9.69971
▁Instagram	-9.69971
▁20%	-9.69975
▁specifically	-9.69975
▁win	-9.6999
▁weight	-9.7
▁align	-9.70016
▁spectrum	-9.70017
▁relevant	-9.70025
▁organization	-9.70026
▁unlike	-9.70032
▁paper	-9.70035
▁abortion	-9.70102
▁Girl	-9.70112
▁compelled	-9.70115
▁wide	-9.70335
tally	-9.70461
▁per	-9.70533
▁lies	-9.70547
▁—	-9.7063
▁compare	-9.70701
▁plan	-9.70755
▁Z	-9.70873
os	-9.71062
▁none	-9.71101
ph	-9.7115
▁soon	-9.71214
22	-9.7123
X	-9.71238
▁28	-9.71384
▁nose	-9.71401
▁separate	-9.71453
▁remove	-9.71496
▁Lis	-9.71566
▁thousands	-9.71611
even	-9.71657
National	-9.71671
▁definitions	-9.71797
▁looks	-9.71973
somehow	-9.72435
▁value	-9.72463
▁existed	-9.72566
16	-9.72707
▁lifestyle	-9.72719
▁Well	-9.72773
▁million	-9.72792
im	-9.73002
▁pronoun	-9.73152
bru	-9.73289
▁13	-9.73329
li	-9.73486
▁2017,	-9.737
▁range	-9.73729
▁wonder	-9.73825
▁die	-9.74152
▁god	-9.74291
▁affect	-9.74302
woman	-9.74315
▁parts	-9.74367
▁develop	-9.74743
▁express	-9.74858
ably	-9.74877
identifying	-9.74934
▁recent	-9.75121
▁notice	-9.75351
▁prefer	-9.75374
ince	-9.75405
▁light	-9.75453
▁major	-9.7547
▁list	-9.75493
▁Perhaps	-9.755
▁baby	-9.755
▁believing	-9.755
▁depressed	-9.755
▁penis	-9.755
▁suspect	-9.755
▁thread	-9.75501
▁above	-9.75501
▁possibility	-9.75502
▁vulnerable	-9.75502
▁grew	-9.75503
▁context	-9.75503
AND	-9.75508
▁attracted	-9.75524
▁super	-9.75526
▁possibly	-9.75528
▁healthcare	-9.75541
▁campus	-9.75541
▁poor	-9.75544
▁cutting	-9.75545
▁pure	-9.75564
▁protection	-9.75571
▁division	-9.75583
▁Oc	-9.75587
▁alcohol	-9.75603
nl	-9.75616
▁Report	-9.75627
▁Get	-9.75671
▁transitioned	-9.75685
▁humanity	-9.75694
▁homosexual	-9.75699
▁received	-9.7576
▁Does	-9.75772
▁hit	-9.75774
▁determined	-9.75797
▁double	-9.75803
▁Please	-9.7583
▁apparently	-9.75915
▁higher	-9.75928
▁Where	-9.76001
▁minds	-9.76003
▁seriously	-9.76031
▁fill	-9.76082
▁diagnosis	-9.76086
▁IS	-9.76086
▁described	-9.76106
▁expressed	-9.76107
▁corporations	-9.76188
▁fat	-9.76534
J	-9.76638
▁hours	-9.76648
▁depend	-9.76809
▁seeking	-9.76816
Not	-9.76824
▁binary	-9.76872
▁interesting	-9.76904
▁80	-9.7704
ier	-9.77097
▁jobs	-9.7724
▁Adolescents	-9.77265
▁hateful	-9.77358
lo	-9.7751
▁fighting	-9.77816
▁Go	-9.77903
▁drug	-9.78318
▁son	-9.78324
▁4.	-9.78516
▁elite	-9.78585
▁promote	-9.78709
▁begin	-9.7871
▁psychologist	-9.78734
▁red	-9.79129
ca	-9.79398
▁message	-9.7973
▁concepts	-9.79774
early	-9.80018
post	-9.80138
▁pick	-9.80407
New	-9.80515
health	-9.80525
▁break	-9.80549
▁relationships	-9.80568
For	-9.80575
**	-9.80698
▁guys	-9.80888
et	-9.80904
▁equal	-9.80963
▁sh	-9.81006
q	-9.8106
▁refuse	-9.81158
▁fundamental	-9.81251
▁obsess	-9.81318
▁final	-9.8138
▁Study	-9.81382
encouraging	-9.81382
▁confusion	-9.81382
▁intervention	-9.81382
▁rhetoric	-9.81382
▁search	-9.81382
▁automatically	-9.81382
nih	-9.81382
▁angry	-9.81383
▁positive	-9.81386
▁ridiculous	-9.81392
▁dude	-9.81394
▁detransitioners	-9.81398
▁model	-9.81399
▁blue	-9.81412
▁convert	-9.81412
▁controversial	-9.81416
▁Ross	-9.81424
▁Lucy	-9.81434
▁deliberate	-9.81434
▁offers	-9.81449
▁Gen	-9.8145
▁Page	-9.81454
▁accurate	-9.81464
▁Medical	-9.81464
▁endless	-9.81509
▁parties	-9.81545
▁imply	-9.81557
▁count	-9.816
▁path	-9.81614
▁ESG	-9.81625
▁abnormal	-9.81625
▁directly	-9.81636
▁decisions	-9.81693
▁compar	-9.81721
To	-9.81745
▁aspect	-9.81791
▁hands	-9.8186
▁belong	-9.81914
▁folks	-9.81951
▁daily	-9.81999
▁discussing	-9.82133
▁killed	-9.82145
ignment	-9.82152
ol	-9.82231
▁please	-9.82236
As	-9.82399
28	-9.82406
mi	-9.8241
▁knows	-9.82418
▁helping	-9.82557
becoming	-9.82622
▁followed	-9.82632
thing	-9.82676
non	-9.82689
▁offered	-9.82767
▁party	-9.82772
my	-9.82904
▁biologically	-9.83382
10	-9.83517
▁stated	-9.83746
▁vi	-9.83816
ra	-9.83913
▁mov	-9.84038
long	-9.84203
▁bi	-9.84389
▁concern	-9.84395
▁standards	-9.84417
▁ought	-9.84497
▁peers	-9.84596
▁prior	-9.84686
ul	-9.84758
▁expert	-9.84904
▁degree	-9.84925
▁art	-9.84994
▁type	-9.85027
▁liberal	-9.85105
Up	-9.85135
▁du	-9.85277
▁interests	-9.85486
40	-9.85829
▁achieve	-9.8595
▁function	-9.85977
▁results	-9.86097
▁needs	-9.86426
00	-9.865
go	-9.86595
R	-9.86666
with	-9.86752
women	-9.86779
Do	-9.86787
which	-9.86797
▁deep	-9.87158
▁ten	-9.87405
▁celebrate	-9.87449
▁main	-9.87458
▁respond	-9.87608
▁Boston	-9.87632
▁Lupron	-9.87632
▁Marchiano	-9.87632
▁World	-9.87632
▁breakdown	-9.87632
▁phalloplasty	-9.87632
▁phenomenon	-9.87632
▁produce	-9.87632
▁worldview	-9.87632
▁worry	-9.87632
▁silly	-9.87632
▁faith	-9.87633
▁permanent	-9.87633
▁lean	-9.87634
▁opposition	-9.87635
▁Tumblr	-9.87637
▁2014	-9.87637
▁dad	-9.87638
▁profound	-9.87638
▁panic	-9.8764
▁dick	-9.87643
▁picture	-9.87646
▁indeed	-9.8765
▁send	-9.87658
▁trial	-9.87662
▁hatred	-9.87665
▁binder	-9.87666
▁yeah	-9.87667
▁everybody	-9.87681
▁base	-9.87687
▁Angela	-9.87688
▁September	-9.8772
▁regardless	-9.87723
▁solution	-9.87776
▁paid	-9.87788
▁Again	-9.87833
▁acceptable	-9.87839
▁associate	-9.87843
▁Social	-9.87871
▁grooming	-9.87872
▁(“	-9.87923
ery	-9.87944
▁text	-9.88004
▁contact	-9.88006
identifies	-9.8801
▁conversion	-9.88012
▁transphobe	-9.88209
▁rarely	-9.88285
▁queer	-9.88354
▁Kids	-9.88381
men	-9.88408
▁pedophiles	-9.88412
▁outrage	-9.88457
▁developed	-9.88466
care	-9.88696
▁interested	-9.88721
▁symptoms	-9.8876
▁**	-9.88773
▁com	-9.88874
new	-9.8896
▁handle	-9.8918
▁explained	-9.89191
▁h	-9.89404
▁kick	-9.89481
now	-9.89725
▁status	-9.89896
▁fan	-9.90008
▁hasn	-9.90258
▁hadn	-9.90268
▁po	-9.90323
▁concerns	-9.90357
▁broad	-9.90591
▁successful	-9.90592
▁Ha	-9.90645
ril	-9.90661
hich	-9.90725
▁run	-9.90838
ak	-9.90864
▁identified	-9.9101
30	-9.91013
▁argu	-9.91065
▁write	-9.91272
▁25	-9.91319
▁game	-9.91562
▁j	-9.91569
▁7	-9.91579
▁John	-9.91588
▁record	-9.91625
▁votes	-9.91642
▁bear	-9.91959
▁posts	-9.92083
▁ch	-9.92172
izing	-9.92183
!”	-9.92406
▁teen	-9.92429
ence	-9.92706
▁books	-9.9292
12	-9.93006
▁believed	-9.93144
reddit	-9.93409
just	-9.93431
People	-9.93435
children	-9.93442
people	-9.93442
ath	-9.93572
▁di	-9.93598
▁complete	-9.93619
▁check	-9.93722
this	-9.93856
▁challenge	-9.93856
▁recommend	-9.93888
▁Post	-9.93929
▁Us	-9.941
utm	-9.94126
▁lock	-9.94208
▁Let	-9.94216
▁hide	-9.94225
▁object	-9.94232
ING	-9.94254
ppl	-9.94291
thWaveNow	-9.94299
▁Bailey	-9.94299
▁Review	-9.94299
▁challenging	-9.94299
▁unfair	-9.94299
▁company	-9.94299
▁increasing	-9.94299
▁Rachel	-9.94299
▁promise	-9.94299
▁communities	-9.943
▁pedophilia	-9.94301
▁proud	-9.94301
▁consensus	-9.94301
▁ignorant	-9.94304
▁stage	-9.94305
▁beginning	-9.94308
▁excuse	-9.94315
▁Transition	-9.94318
▁100%	-9.94319
▁Brie	-9.94326
▁YOU	-9.94327
▁Shapiro	-9.94333
▁Shrier	-9.94333
▁Center	-9.94364
▁establish	-9.94371
▁personality	-9.94382
▁Teen	-9.94387
▁factual	-9.94392
▁ideological	-9.94396
▁announcement	-9.944
▁plastic	-9.94403
▁fell	-9.94408
???	-9.9443
▁Washington	-9.94453
▁Would	-9.94453
▁absurd	-9.94502
▁anorexia	-9.94515
▁Show	-9.94538
▁bill	-9.94553
▁practice	-9.94568
▁constantly	-9.94614
bet	-9.94665
▁recently	-9.94778
▁Mental	-9.94791
▁harder	-9.94802
▁chest	-9.94914
▁X	-9.94924
▁ready	-9.94939
▁failing	-9.94965
ped	-9.94974
magine	-9.95029
▁encouraged	-9.95034
▁content	-9.95069
sistence	-9.95159
▁bullying	-9.95205
▁22	-9.9524
▁30	-9.9529
▁removed	-9.95327
▁added	-9.95344
▁blame	-9.95445
▁procedures	-9.95694
▁absolute	-9.95808
▁hell	-9.96092
▁Je	-9.96414
▁sole	-9.96759
▁5.	-9.9752
▁knowing	-9.97583
▁victim	-9.97673
net	-9.97876
▁flags	-9.98349
ons	-9.98521
▁maintain	-9.9859
articles	-9.98628
▁Bo	-9.9863
▁piece	-9.98657
▁ground	-9.98716
▁Disorder	-9.98801
▁Christians	-9.9893
▁activist	-9.98965
end	-9.9926
▁nu	-9.99902
▁Co	-9.99956
▁im	-9.99969
ists	-10.0008
▁50	-10.001
sexual	-10.0016
ass	-10.0036
▁fix	-10.0038
▁conform	-10.0042
▁engag	-10.0042
▁lesbians	-10.0049
▁working	-10.0049
First	-10.0056
amp	-10.0057
Just	-10.0058
LGBTQ	-10.0058
why	-10.0059
***	-10.0069
well	-10.007
▁arguments	-10.0077
iv	-10.0091
▁success	-10.0095
affirming	-10.0097
▁determine	-10.0106
way	-10.0109
▁stick	-10.0117
cular	-10.0141
▁whom	-10.0143
▁odd	-10.0144
▁appeal	-10.0144
▁husband	-10.0144
▁pork	-10.0144
▁potential	-10.0144
▁Canada	-10.0144
▁autism	-10.0144
▁enemy	-10.0144
▁mastectomy	-10.0144
▁phase	-10.0144
▁policies	-10.0144
▁reproductive	-10.0144
▁loud	-10.0144
▁twenty	-10.0144
▁vague	-10.0144
▁worst	-10.0144
▁version	-10.0144
▁Over	-10.0144
▁writing	-10.0144
▁Joanna	-10.0144
▁reply	-10.0144
▁reproduction	-10.0144
▁mock	-10.0144
▁climate	-10.0144
▁deem	-10.0144
▁clothing	-10.0145
▁wanna	-10.0145
▁six	-10.0145
▁intention	-10.0145
▁stance	-10.0145
▁murder	-10.0145
▁applie	-10.0146
▁reass	-10.0146
▁UCLA	-10.0148
▁insurance	-10.0148
▁married	-10.0148
▁species	-10.0148
▁smart	-10.0148
▁innocent	-10.0148
▁rais	-10.0149
▁everywhere	-10.0149
▁offend	-10.015
▁broken	-10.015
▁environment	-10.0151
▁bond	-10.0152
▁embrace	-10.0154
▁David	-10.0154
▁Development	-10.0154
▁local	-10.0154
▁babies	-10.0155
▁connect	-10.0157
▁weak	-10.0157
▁neutral	-10.0161
▁gain	-10.0162
typically	-10.0162
▁balance	-10.0167
▁scene	-10.0172
▁Men	-10.0172
uk	-10.0173
▁fired	-10.0177
▁ahead	-10.0181
▁failed	-10.0189
ED	-10.0193
▁Y	-10.0197
▁26	-10.0202
▁younger	-10.0209
▁Ben	-10.0213
▁norms	-10.0214
▁Au	-10.0221
▁First	-10.0234
▁extremely	-10.0237
▁note	-10.0243
▁eating	-10.0249
some	-10.0269
▁expected	-10.0269
▁listening	-10.0309
na	-10.031
rs	-10.0322
▁sites	-10.0323
▁8.	-10.0327
▁watched	-10.0338
▁ear	-10.0342
▁faces	-10.0348
law	-10.0351
▁tip	-10.0371
bo	-10.0394
ot	-10.0401
▁fad	-10.0402
▁visit	-10.0403
▁10.	-10.0406
min	-10.0415
▁Non	-10.0415
only	-10.0417
▁oppos	-10.0426
▁posted	-10.0438
▁mess	-10.044
▁harming	-10.0501
▁29	-10.0519
▁na	-10.0525
▁efforts	-10.054
▁claimed	-10.0553
▁remov	-10.0563
AT	-10.0572
▁los	-10.0609
▁discuss	-10.0614
▁delusion	-10.0627
▁complain	-10.0645
▁detail	-10.0647
▁surgeon	-10.0649
▁7.	-10.0651
▁space	-10.0653
use	-10.0661
tal	-10.0672
15	-10.0683
▁unit	-10.0685
▁late	-10.0686
▁Dec	-10.0697
▁teenager	-10.0702
▁disorders	-10.0723
▁La	-10.0728
▁None	-10.0764
queer	-10.0765
body	-10.0773
▁door	-10.0794
time	-10.0819
(	-10.0823
work	-10.0824
content	-10.0825
social	-10.0828
▁creat	-10.0828
over	-10.0839
have	-10.0845
kids	-10.0846
action	-10.0854
far	-10.0861
▁alter	-10.0864
▁spike	-10.0869
phobic	-10.087
▁slow	-10.0875
▁objective	-10.0882
.”)	-10.0885
ka	-10.0889
▁ju	-10.0892
▁comfort	-10.0908
▁reflect	-10.0909
▁contradict	-10.0909
▁op	-10.0912
▁99%	-10.0913
▁Muslim	-10.0913
▁Shirley	-10.0913
▁abandon	-10.0913
▁attitude	-10.0913
▁happier	-10.0913
▁happily	-10.0913
▁mouth	-10.0913
▁thirteen	-10.0913
▁tissue	-10.0913
▁wild	-10.0913
▁League	-10.0913
▁zero	-10.0913
▁caught	-10.0913
▁initial	-10.0913
▁Jewish	-10.0914
▁Olson	-10.0914
▁historical	-10.0914
▁series	-10.0914
▁field	-10.0914
▁ignorance	-10.0914
▁criticism	-10.0914
▁harassment	-10.0915
▁energy	-10.0915
▁Our	-10.0916
▁structure	-10.0916
▁dislike	-10.0917
▁Testosterone	-10.0917
▁beautiful	-10.0917
▁secret	-10.0917
▁Risk	-10.0917
▁IWD	-10.0917
▁innate	-10.0918
▁assure	-10.0918
▁fast	-10.0918
▁invite	-10.0919
▁desperate	-10.0919
▁Though	-10.0921
specially	-10.0923
▁incredibly	-10.0925
▁psychiatric	-10.0926
▁leg	-10.0926
▁harmful	-10.0928
▁demonstrate	-10.093
▁Although	-10.0932
▁makeup	-10.0933
▁surprised	-10.0934
▁grown	-10.0936
▁announced	-10.0939
low	-10.0939
▁explains	-10.0945
guidelines	-10.0945
▁Whe	-10.0946
▁70	-10.0949
▁Tell	-10.0954
▁Sure	-10.0954
▁board	-10.0955
▁downvoted	-10.0956
▁supportive	-10.0961
▁deeply	-10.0963
▁Ash	-10.0967
▁national	-10.0967
▁Call	-10.0969
can	-10.0973
▁introduced	-10.0974
▁cisgender	-10.0975
▁thank	-10.0981
▁meaningful	-10.0983
▁method	-10.0984
▁legally	-10.0984
▁Any	-10.0988
▁emotionally	-10.0989
▁citizens	-10.0989
▁pills	-10.0989
▁emotions	-10.099
girls	-10.0991
▁inside	-10.0994
▁former	-10.0999
kin	-10.1026
▁psychologically	-10.1037
pass	-10.1043
pro	-10.1053
▁traits	-10.1055
▁phone	-10.1064
▁sit	-10.1071
▁forms	-10.1075
▁killing	-10.1076
▁features	-10.1076
oard	-10.1078
▁math	-10.1082
):	-10.1088
▁bathrooms	-10.112
▁options	-10.1131
▁vs	-10.1151
▁led	-10.1152
▁alleviate	-10.1156
▁arms	-10.1164
▁surgeons	-10.1186
▁acting	-10.1187
▁2019	-10.1188
▁ho	-10.1225
▁100	-10.1267
▁sources	-10.1268
▁bar	-10.1277
.3	-10.128
ated	-10.1284
▁capture	-10.129
▁ok	-10.1298
accused	-10.1316
▁advocate	-10.1344
▁m	-10.1348
real	-10.1368
▁articles	-10.1371
▁drive	-10.1372
teen	-10.1384
▁benefits	-10.1387
▁Fe	-10.1388
Nov	-10.1391
▁interview	-10.1412
▁notion	-10.1421
▁oppose	-10.1425
▁differently	-10.1427
▁Psycholog	-10.1436
▁struggle	-10.145
▁bigots	-10.1474
▁15	-10.1478
▁score	-10.1481
▁se	-10.1482
▁thousand	-10.1484
▁hundred	-10.1487
▁character	-10.1497
▁u	-10.1498
▁Adolescent	-10.1503
▁arm	-10.1507
▁Right	-10.1554
▁expos	-10.1559
▁undergo	-10.1565
ee	-10.158
transition	-10.1584
▁hat	-10.1585
▁era	-10.1605
ac	-10.1633
ations	-10.1633
oth	-10.1645
▁celebrat	-10.1652
does	-10.1655
diagnosis	-10.1659
▁eliminat	-10.1659
▁sin	-10.166
front	-10.166
normal	-10.166
change	-10.1661
‘	-10.1661
person	-10.1661
who	-10.1665
rew	-10.167
went	-10.1672
▁bias	-10.168
because	-10.1683
▁conditions	-10.1685
▁differences	-10.1685
bow	-10.1689
▁distract	-10.1692
▁logic	-10.1694
▁special	-10.1696
▁damage	-10.1697
▁consistent	-10.1701
All	-10.1702
▁constant	-10.1707
▁receive	-10.1708
hood	-10.1711
▁fire	-10.1716
▁regular	-10.1717
fted	-10.1717
▁document	-10.1718
daily	-10.172
24	-10.1722
▁rational	-10.1744
▁cruel	-10.1745
youtu	-10.1745
▁shame	-10.1746
▁audience	-10.1747
ppreciate	-10.1747
▁Adults	-10.1747
▁Behavior	-10.1747
▁Democrat	-10.1747
▁Europe	-10.1747
▁Family	-10.1747
▁Kristal	-10.1747
▁misinformation	-10.1747
▁punish	-10.1747
▁sleep	-10.1747
▁taboo	-10.1747
▁anxious	-10.1747
▁habit	-10.1747
▁organs	-10.1747
▁kiss	-10.1747
▁implie	-10.1747
▁Street	-10.1747
▁eighteen	-10.1747
▁conflict	-10.1747
▁genitalia	-10.1747
tlantic	-10.1747
▁relative	-10.1747
▁administer	-10.1747
▁fault	-10.1747
▁twelve	-10.1747
▁exclusive	-10.1747
▁suck	-10.1747
▁institutions	-10.1747
▁disease	-10.1747
▁reduction	-10.1747
▁crack	-10.1747
▁Buck	-10.1747
▁professor	-10.1747
▁reaction	-10.1748
▁hang	-10.1748
▁dark	-10.1748
▁Teachers	-10.1748
▁expectations	-10.1748
▁Ivy	-10.1748
▁90	-10.1748
▁earlier	-10.1748
▁understood	-10.1748
▁mine	-10.1749
▁sake	-10.1749
▁repeat	-10.1749
▁enter	-10.1749
▁Never	-10.175
▁TRANS	-10.1751
▁Service	-10.1751
▁discomfort	-10.1751
▁extremist	-10.1751
▁capacity	-10.1751
▁racist	-10.1751
▁nine	-10.1751
▁century	-10.1752
▁decline	-10.1755
▁counter	-10.1757
▁bigger	-10.1757
▁Wall	-10.1758
▁alpha	-10.1759
▁slur	-10.1759
▁porn	-10.1759
▁communism	-10.1759
▁cure	-10.176
▁classic	-10.1761
▁trust	-10.1766
▁Human	-10.1766
▁rich	-10.1766
▁Look	-10.1769
▁affirmation	-10.1769
▁fluid	-10.1769
▁somewhat	-10.1771
▁eight	-10.1773
▁Doesn	-10.1778
▁seven	-10.1781
▁trendy	-10.1783
18	-10.1785
▁essentially	-10.1788
▁quote	-10.1793
▁building	-10.1794
▁sell	-10.1798
▁directed	-10.1803
▁consequences	-10.1806
Probably	-10.1808
▁interviewed	-10.181
▁w	-10.1816
▁fairly	-10.1832
▁increased	-10.1837
▁refused	-10.1838
▁runn	-10.1855
▁40	-10.1877
▁tattoos	-10.1901
cent	-10.1906
ig	-10.1922
▁active	-10.1926
▁animals	-10.1929
▁provides	-10.1946
▁g	-10.1958
ob	-10.1966
27	-10.1974
▁careful	-10.1976
▁generations	-10.1992
▁loved	-10.2002
▁toys	-10.201
▁Les	-10.2012
lar	-10.2014
▁Rights	-10.202
▁advise	-10.2026
▁details	-10.2045
▁Am	-10.2062
▁loss	-10.2067
▁victims	-10.2073
gg	-10.2091
▁ages	-10.2107
lt	-10.2111
ci	-10.2132
▁cares	-10.2135
▁2018)	-10.214
▁begins	-10.2142
▁1,	-10.2143
▁Ap	-10.2176
.*	-10.2201
▁Whi	-10.2206
▁ha	-10.2237
▁worked	-10.2238
▁places	-10.2259
▁demands	-10.2268
▁Schools	-10.227
29	-10.2275
▁purpose	-10.2287
▁Di	-10.2295
▁insists	-10.2309
om	-10.2328
where	-10.2348
▁wo	-10.2368
▁crime	-10.2376
line	-10.2379
ER	-10.2389
▁hospital	-10.2392
▁court	-10.2393
▁service	-10.2406
▁State	-10.2417
nyone	-10.2435
les	-10.2436
side	-10.2438
▁gr	-10.245
▁platform	-10.245
ick	-10.246
25	-10.2498
▁fool	-10.2517
its	-10.2519
ious	-10.2534
▁forget	-10.255
▁market	-10.2555
ial	-10.2556
▁continues	-10.2557
▁Americans	-10.2559
born	-10.2562
clear	-10.2569
push	-10.257
female	-10.2571
Who	-10.2571
face	-10.2579
▁la	-10.2583
▁stat	-10.2583
ey	-10.2585
Hav	-10.2586
▁direct	-10.2589
▁threaten	-10.2593
▁questioning	-10.2593
▁pull	-10.2594
▁reverse	-10.2615
▁essential	-10.2616
▁declare	-10.2616
▁apparent	-10.2621
▁pi	-10.2623
▁effective	-10.2633
▁Bill	-10.2645
"?	-10.2647
▁broke	-10.2649
▁progress	-10.2649
▁Psychiatry	-10.2656
▁Twenge	-10.2656
▁escape	-10.2656
▁portion	-10.2656
▁rigid	-10.2656
▁sacrifice	-10.2656
▁security	-10.2656
▁strength	-10.2656
▁ultimate	-10.2656
▁Paul	-10.2656
▁altogether	-10.2656
▁crisis	-10.2656
▁resort	-10.2656
▁utter	-10.2656
▁estrogen	-10.2656
▁render	-10.2656
▁reveal	-10.2656
▁travel	-10.2656
▁Clinic	-10.2656
▁reversible	-10.2656
▁Western	-10.2656
▁predict	-10.2656
▁censorship	-10.2656
▁key	-10.2656
▁encounter	-10.2656
▁permit	-10.2656
▁giant	-10.2656
▁voting	-10.2656
▁except	-10.2657
▁counselor	-10.2657
▁official	-10.2657
▁unique	-10.2657
▁Ho	-10.2658
▁indoctrination	-10.2658
▁appearance	-10.2658
▁(@	-10.266
▁WEF	-10.2661
▁disinformation	-10.2661
▁happiness	-10.2661
▁fresh	-10.2661
▁areas	-10.2661
▁Jesus	-10.2661
▁pursue	-10.2661
▁criteria	-10.2661
▁encouragement	-10.2661
▁virtue	-10.2662
▁opportunity	-10.2662
▁troll	-10.2662
▁dozen	-10.2663
▁welcome	-10.2663
metic	-10.2663
Parent	-10.2663
▁attraction	-10.2664
▁subjective	-10.2667
▁Science	-10.2669
▁Should	-10.2669
▁athlete	-10.2669
▁violent	-10.2669
▁Big	-10.2673
▁bisexual	-10.2678
▁halt	-10.268
▁abusive	-10.2682
▁city	-10.2684
▁writer	-10.2685
wp	-10.2686
▁sexualized	-10.2689
▁v	-10.2693
▁cast	-10.2698
▁Keep	-10.27
21	-10.2702
▁March	-10.2704
gest	-10.2718
▁characteristics	-10.2721
▁afford	-10.2721
▁23	-10.2728
▁voted	-10.2743
▁exists	-10.2745
▁16.	-10.2759
▁factors	-10.2761
▁24	-10.2764
▁accuse	-10.2768
▁Youth	-10.2772
▁style	-10.2773
▁adopted	-10.2777
ana	-10.2779
istic	-10.2793
ned	-10.281
▁town	-10.2813
▁weaken	-10.2823
▁Ch	-10.284
▁twitter	-10.2842
▁event	-10.2848
▁option	-10.2849
▁commonly	-10.2851
▁quit	-10.2853
▁played	-10.287
▁Ro	-10.288
-5	-10.2919
ag	-10.2927
ility	-10.2935
▁dra	-10.2947
,000	-10.2971
ame	-10.2973
▁introduc	-10.2986
▁Disorders	-10.3011
33	-10.3087
ze	-10.3089
14	-10.3091
▁psychologists	-10.3091
state	-10.3113
ley	-10.3139
▁calls	-10.3143
▁agreed	-10.315
▁rape	-10.3173
▁fail	-10.3209
On	-10.3221
itting	-10.3248
▁examples	-10.3252
ard	-10.3281
ified	-10.3332
▁weeks	-10.3341
▁suggests	-10.3377
▁bathroom	-10.3391
top	-10.3392
tely	-10.3395
▁prescribe	-10.3413
▁provid	-10.3415
▁diagnose	-10.3419
▁star	-10.3421
dge	-10.3441
ake	-10.3456
▁admitted	-10.3461
▁Sam	-10.3467
▁Part	-10.3492
ged	-10.3495
▁confirm	-10.3504
fe	-10.3522
phobia	-10.3527
ler	-10.3545
lly	-10.355
▁bone	-10.3557
blog	-10.3564
lgbtq	-10.3566
Lol	-10.3567
onset	-10.3568
policy	-10.3568
science	-10.3569
ries	-10.3569
based	-10.357
child	-10.357
ideology	-10.3572
think	-10.3573
share	-10.3573
Right	-10.3587
▁request	-10.3589
Don	-10.3604
▁drop	-10.3608
Go	-10.3609
▁flat	-10.3609
▁previous	-10.3616
▁confuse	-10.3618
▁press	-10.3618
▁dance	-10.3634
▁improve	-10.3634
▁strange	-10.3642
▁mark	-10.3643
terpersonal	-10.3646
sychiatric	-10.3648
▁suppress	-10.3652
▁Act	-10.3652
▁romantic	-10.3655
rican	-10.3656
Exactly	-10.3656
▁Foundation	-10.3656
▁Nabozny	-10.3656
▁Obama	-10.3656
▁PLoS	-10.3656
▁Richard	-10.3656
▁empathy	-10.3656
▁ideologies	-10.3656
▁independen	-10.3656
▁literature	-10.3656
▁ourselves	-10.3656
▁pharmaceutical	-10.3656
▁revolve	-10.3656
▁switch	-10.3656
▁loving	-10.3656
▁alleged	-10.3656
▁intellectual	-10.3656
▁Therefore	-10.3656
▁Erin	-10.3656
▁prescription	-10.3656
▁universities	-10.3656
▁studied	-10.3656
▁stress	-10.3656
▁Dave	-10.3656
▁honor	-10.3656
▁relentless	-10.3656
▁possess	-10.3656
▁shape	-10.3656
▁diagnostic	-10.3656
▁root	-10.3656
▁survey	-10.3656
▁senior	-10.3656
▁rise	-10.3656
▁compelling	-10.3656
▁extent	-10.3656
▁deliver	-10.3656
▁impact	-10.3657
▁joke	-10.3657
tuck	-10.3657
▁winning	-10.3657
truck	-10.3658
▁irreversible	-10.3658
▁Still	-10.3658
▁size	-10.3658
▁UK	-10.3658
▁backlash	-10.3658
▁jump	-10.3658
▁philosophy	-10.366
▁conduct	-10.366
▁earth	-10.366
▁chosen	-10.366
▁journey	-10.3661
▁Sometimes	-10.3661
▁coach	-10.3661
▁discourse	-10.3662
▁poll	-10.3663
▁intentionally	-10.3664
▁31	-10.3664
▁fashion	-10.3664
▁awful	-10.3666
▁broader	-10.3668
▁deeper	-10.3668
▁somewhere	-10.3669
▁Child	-10.367
▁lazy	-10.367
▁explicitly	-10.3671
▁Another	-10.3671
▁somebody	-10.3671
▁overwhelming	-10.3672
▁equivalent	-10.3672
▁published	-10.3672
ett	-10.3673
▁virtual	-10.3676
everal	-10.3678
▁distinguish	-10.368
▁quiet	-10.368
▁Follow	-10.368
▁occasional	-10.368
Wow	-10.3683
▁kindness	-10.3683
▁disagreement	-10.3684
efore	-10.3685
▁precisely	-10.3688
▁hidden	-10.3689
▁controlled	-10.369
▁usage	-10.369
▁closer	-10.3691
▁North	-10.3691
▁Stop	-10.3694
▁proven	-10.3694
▁Wa	-10.3695
▁previously	-10.3696
▁lower	-10.3697
▁Jews	-10.37
▁clinicians	-10.3701
▁girlfriend	-10.3706
▁inject	-10.3706
▁slowly	-10.3709
▁ignore	-10.3711
dropped	-10.3715
▁lgbt	-10.3717
▁West	-10.372
▁transphobia	-10.3721
EL	-10.3726
▁mods	-10.3728
▁practical	-10.3731
▁wise	-10.3734
▁cr	-10.3737
▁onset	-10.3754
▁concerned	-10.376
▁Ma	-10.376
int	-10.3762
▁“[	-10.3772
▁27	-10.3774
▁convinced	-10.3779
▁divided	-10.3781
▁clo	-10.3782
cord	-10.3784
▁aliens	-10.3796
▁statistical	-10.3797
▁forever	-10.3801
▁Age	-10.3802
▁listened	-10.3806
▁Nor	-10.3818
▁vaccines	-10.382
ship	-10.3823
▁eat	-10.3834
▁suggested	-10.3836
▁engaged	-10.3839
king	-10.3844
▁brothers	-10.3844
▁interactions	-10.3844
▁li	-10.3864
▁Oh	-10.387
▁conforming	-10.3873
▁aside	-10.3877
▁scientists	-10.3879
▁expose	-10.3887
07	-10.3893
▁resemble	-10.392
ither	-10.3932
▁reporting	-10.3943
▁suggesting	-10.3945
▁bann	-10.395
pl	-10.3956
▁worker	-10.3962
▁included	-10.3986
EN	-10.4
▁passing	-10.4002
ner	-10.4013
▁events	-10.4049
files	-10.405
▁practices	-10.4072
▁records	-10.4081
▁accus	-10.4084
oo	-10.4091
Leave	-10.4091
▁ring	-10.4103
▁types	-10.4111
ative	-10.416
▁draw	-10.42
til	-10.4202
pt	-10.4203
ize	-10.4212
ink	-10.4213
come	-10.4219
▁forth	-10.4252
▁showed	-10.4279
ja	-10.433
ities	-10.4341
5%	-10.4364
▁assum	-10.4371
▁bl	-10.4372
▁AI	-10.4387
▁morals	-10.4422
▁nation	-10.445
land	-10.4451
▁ca	-10.4452
.1	-10.4453
▁reports	-10.4453
▁muscle	-10.4474
▁anorexic	-10.448
▁pe	-10.4481
▁attacks	-10.4483
▁profit	-10.4484
▁variation	-10.4487
▁material	-10.4488
▁center	-10.4497
▁Other	-10.4513
▁influencer	-10.4531
ill	-10.4535
▁st	-10.454
lthough	-10.4541
▁exploit	-10.4553
vol	-10.4561
▁moderat	-10.4575
/)	-10.4578
wo	-10.4593
▁cost	-10.4595
▁gra	-10.4597
▁alarm	-10.46
▁mutilat	-10.4604
▁bra	-10.4626
19	-10.4638
pub	-10.4649
▁explore	-10.4659
▁y	-10.4662
Yea	-10.4666
\*	-10.4676
Every	-10.4678
Sex	-10.4679
drag	-10.468
address	-10.468
research	-10.4681
transphobe	-10.4681
first	-10.4681
wrong	-10.4681
party	-10.4684
about	-10.4685
▁cry	-10.4687
say	-10.4692
etc	-10.4695
was	-10.4696
▁harass	-10.4701
▁cos	-10.4702
Re	-10.4702
their	-10.4703
▁censor	-10.4704
▁shock	-10.4706
▁interpret	-10.4706
▁2013	-10.4716
▁trip	-10.4719
▁joy	-10.4719
▁guarantee	-10.4724
▁approve	-10.4726
▁quick	-10.4726
ack	-10.4735
At	-10.4737
▁employ	-10.4742
▁ti	-10.4745
▁guide	-10.4745
▁profession	-10.4757
▁fetish	-10.476
▁reli	-10.4765
▁compassion	-10.4766
▁occur	-10.4767
▁Brown	-10.4767
▁Chiasson	-10.4767
▁GOP	-10.4767
▁Surgery	-10.4767
▁club	-10.4767
▁devot	-10.4767
▁principal	-10.4767
▁scream	-10.4767
▁sensitive	-10.4767
rapeutic	-10.4767
▁Black	-10.4767
▁Suicide	-10.4767
▁Thomas	-10.4767
▁confusing	-10.4767
▁destruction	-10.4767
▁expensive	-10.4767
▁facial	-10.4767
▁fifteen	-10.4767
▁guidance	-10.4767
▁leaving	-10.4767
▁president	-10.4767
▁Fair	-10.4767
▁match	-10.4767
▁succeed	-10.4767
▁supply	-10.4767
▁aggressive	-10.4767
▁inherent	-10.4767
▁Haidt	-10.4767
▁naked	-10.4767
▁Ayad	-10.4767
▁choosing	-10.4767
▁Holocaust	-10.4767
▁Think	-10.4767
Standards	-10.4767
▁leap	-10.4767
▁homophobic	-10.4767
Kenne	-10.4767
▁expertise	-10.4767
▁tweet	-10.4767
▁permission	-10.4767
▁clown	-10.4767
Kennedy	-10.4767
▁repeatedly	-10.4767
▁campaign	-10.4767
▁comparison	-10.4767
▁unnecessary	-10.4767
boston	-10.4767
▁masculiniz	-10.4767
ovas	-10.4767
▁Brand	-10.4767
▁constitute	-10.4768
▁sixteen	-10.4768
▁minorities	-10.4768
south	-10.4768
Full	-10.4768
mail	-10.4768
▁feminists	-10.4768
▁theories	-10.4768
▁pool	-10.4768
versus	-10.4769
▁planet	-10.4769
▁funny	-10.477
▁unhappy	-10.477
▁wake	-10.477
▁Race	-10.477
▁fake	-10.477
aylee	-10.4771
▁establishment	-10.4771
▁worried	-10.4771
▁adulthood	-10.4771
▁soft	-10.4772
nior	-10.4772
▁horrible	-10.4772
▁rage	-10.4772
▁representation	-10.4772
▁critique	-10.4773
LY	-10.4773
▁Council	-10.4773
▁intelligence	-10.4773
▁offensive	-10.4773
▁street	-10.4773
▁uncomfortable	-10.4773
▁window	-10.4773
▁China	-10.4773
▁famous	-10.4773
▁Alex	-10.4773
▁held	-10.4774
▁grand	-10.4774
▁failure	-10.4774
▁glad	-10.4774
▁ideation	-10.4775
lastic	-10.4777
▁mutilation	-10.4777
▁presume	-10.4778
▁danger	-10.4778
▁cur	-10.4779
▁project	-10.478
▁anywhere	-10.478
▁crowd	-10.478
▁fallen	-10.4781
▁judge	-10.4781
▁anybody	-10.4782
▁favor	-10.4783
▁alternative	-10.4783
▁federal	-10.4783
▁bottom	-10.4783
▁lift	-10.4784
▁Long	-10.4785
▁designed	-10.4786
▁decent	-10.4786
▁presentation	-10.4787
▁host	-10.4787
▁safety	-10.4789
▁transform	-10.4789
▁recall	-10.479
▁boyfriend	-10.4791
▁^	-10.4794
▁technical	-10.4794
▁Jan	-10.4795
▁angle	-10.4795
▁lifetime	-10.4796
▁surgical	-10.4796
▁apartment	-10.4799
▁illnesses	-10.4802
▁2020	-10.4805
▁Abigail	-10.4805
▁JBP	-10.4805
▁justice	-10.4805
▁guardian	-10.4805
▁toxic	-10.4805
▁review	-10.4815
▁depopulation	-10.4815
▁rain	-10.4816
▁charge	-10.4817
08	-10.4818
▁sales	-10.4819
▁arrested	-10.4822
▁psychology	-10.4826
▁track	-10.4827
▁confirmed	-10.4837
tiny	-10.4838
▁beside	-10.4838
ulate	-10.4843
▁20.	-10.4846
▁warn	-10.4849
▁assessment	-10.4851
▁2012	-10.4862
▁lit	-10.4869
▁lgbtq	-10.487
▁struggled	-10.4877
▁ya	-10.4878
▁gurus	-10.4881
▁users	-10.4881
▁Per	-10.4882
▁endocrinologist	-10.4893
▁chemical	-10.4897
ger	-10.49
▁beard	-10.4905
▁queens	-10.4913
▁hips	-10.4919
▁nuts	-10.4922
▁celebrated	-10.4925
▁Thanks	-10.4946
▁psychiatrists	-10.4946
off	-10.4951
▁sp	-10.4959
▁Li	-10.4959
▁powerful	-10.4959
▁shop	-10.4964
▁resist	-10.4975
▁attacked	-10.4976
▁images	-10.4979
▁lectures	-10.4979
▁Lo	-10.4988
/20	-10.499
53	-10.499
▁hoped	-10.4993
▁died	-10.5008
▁Plan	-10.5012
▁smok	-10.5012
edu	-10.5023
▁choices	-10.5023
▁inform	-10.5026
mus	-10.5042
34	-10.5042
▁centers	-10.5045
▁discussions	-10.5056
rn	-10.5083
▁collapse	-10.5086
▁helps	-10.5099
▁Bu	-10.5101
▁formed	-10.5106
ied	-10.511
ash	-10.511
▁services	-10.5111
▁leads	-10.5123
pa	-10.5128
▁struggles	-10.5151
▁#	-10.5155
11	-10.5159
aily	-10.517
▁Guide	-10.518
▁aim	-10.5201
▁burn	-10.5213
app	-10.5217
▁HA	-10.5217
per	-10.5217
▁Al	-10.5232
57	-10.5245
▁fa	-10.525
io	-10.5257
▁liberals	-10.5279
▁degrees	-10.528
▁ended	-10.5295
ff	-10.5297
ants	-10.5305
gging	-10.5351
▁millions	-10.5354
▁sw	-10.5358
mon	-10.5374
▁o	-10.5378
▁committ	-10.5381
sychological	-10.5398
▁15.	-10.5405
▁hated	-10.5438
ile	-10.5442
OF	-10.5442
▁signs	-10.545
▁ma	-10.5452
13	-10.5467
AL	-10.5486
va	-10.5515
▁moms	-10.5521
.13	-10.5526
PA	-10.557
ow	-10.5574
26	-10.5585
▁liked	-10.5623
▁doubts	-10.5626
get	-10.5626
ition	-10.5626
ice	-10.5632
dy	-10.5633
school	-10.5643
girl	-10.567
▁lo	-10.5674
conforming	-10.568
more	-10.569
sting	-10.5693
▁accounts	-10.5697
Man	-10.5702
ke	-10.5706
▁dependen	-10.5719
▁conclusion	-10.5724
▁election	-10.5725
▁positions	-10.5732
▁statements	-10.5732
mate	-10.5733
any	-10.5737
▁existing	-10.5739
▁throat	-10.5742
▁whi	-10.5747
▁wig	-10.5748
▁scientist	-10.5748
▁animal	-10.5751
▁procedure	-10.5753
cited	-10.5753
round	-10.5762
6/	-10.5764
▁situations	-10.5774
▁hour	-10.5774
▁site	-10.5781
gl	-10.5786
▁Conservative	-10.5794
▁ball	-10.58
reasonable	-10.5804
ON	-10.5813
user	-10.582
▁card	-10.5828
life	-10.584
▁feature	-10.5842
▁transsexual	-10.5875
▁conversations	-10.5876
▁internal	-10.5882
filled	-10.5886
▁rock	-10.591
american	-10.5915
journal	-10.5915
▁insult	-10.5916
mongering	-10.5919
sub	-10.5921
▁train	-10.5922
read	-10.5923
Thank	-10.5924
Rule	-10.5924
source	-10.5924
▁passion	-10.5924
Sorry	-10.5925
▁bully	-10.5925
feature	-10.5926
mods	-10.5927
found	-10.593
half	-10.593
woke	-10.593
should	-10.5931
from	-10.5931
argument	-10.5931
toys	-10.5932
lesbian	-10.5932
dead	-10.5932
four	-10.5933
▁struggl	-10.5933
cisgender	-10.5939
▁dismiss	-10.594
▁lu	-10.594
▁laugh	-10.5946
▁acts	-10.5947
drugs	-10.595
▁arrest	-10.5955
Can	-10.5966
Au	-10.5971
▁precise	-10.5977
▁tur	-10.5978
▁office	-10.5996
que	-10.6001
▁extra	-10.601
qui	-10.601
pm	-10.6011
▁hop	-10.6011
▁witness	-10.6011
▁confident	-10.6017
▁differ	-10.6017
▁trick	-10.6017
▁Grow	-10.6017
▁Jenner	-10.6017
▁Jorgensen	-10.6017
▁Public	-10.6017
▁district	-10.6017
▁disturbing	-10.6017
▁prohibit	-10.6017
PMC	-10.6017
▁Medicine	-10.6017
▁Murder	-10.6017
▁Woman	-10.6017
▁accomplish	-10.6017
▁activities	-10.6017
▁blatant	-10.6017
▁decency	-10.6017
▁democrat	-10.6017
▁dollars	-10.6017
▁effeminate	-10.6017
▁impossible	-10.6017
▁inevitable	-10.6017
▁mafia	-10.6017
▁milk	-10.6017
▁minute	-10.6017
▁restaurant	-10.6017
▁surrounding	-10.6017
▁twice	-10.6017
▁unrelated	-10.6017
▁Support	-10.6017
▁beauty	-10.6017
▁muslim	-10.6017
▁plain	-10.6017
▁Suppression	-10.6017
▁disingenuous	-10.6017
▁drink	-10.6017
▁miserable	-10.6017
▁History	-10.6017
▁jaw	-10.6017
▁roll	-10.6017
▁television	-10.6017
▁Musk	-10.6017
▁comply	-10.6017
▁Jackson	-10.6017
▁music	-10.6017
▁nurse	-10.6017
▁presence	-10.6017
▁receiving	-10.6017
▁bedroom	-10.6017
▁begun	-10.6017
▁stem	-10.6017
▁contrary	-10.6017
▁defense	-10.6017
▁ailment	-10.6017
▁memory	-10.6017
eirv	-10.6017
pubmed	-10.6017
▁description	-10.6017
▁financial	-10.6017
▁occurred	-10.6017
▁contrast	-10.6017
▁nervous	-10.6017
▁shield	-10.6017
▁blind	-10.6017
▁championship	-10.6017
▁mature	-10.6017
▁silenc	-10.6017
▁Toronto	-10.6017
▁orgasm	-10.6017
▁familiar	-10.6017
▁gotten	-10.6017
▁ovaries	-10.6017
▁curious	-10.6017
▁sterilize	-10.6017
▁mix	-10.6017
▁calm	-10.6018
▁adhere	-10.6018
▁tribe	-10.6018
valence	-10.6018
▁anatomy	-10.6018
\_	-10.6018
▁Yet	-10.6018
▁YOUR	-10.6018
▁Christine	-10.6018
visible	-10.6019
▁disappoint	-10.6019
▁competition	-10.6019
saving	-10.6019
▁OK	-10.6019
▁friendship	-10.602
▁Trump	-10.602
▁quality	-10.602
▁qualified	-10.602
▁hysterectomy	-10.602
▁observation	-10.602
▁oh	-10.602
▁bag	-10.602
▁70%	-10.6021
▁UN	-10.6021
▁justification	-10.6022
▁satisfy	-10.6024
▁convincing	-10.6024
▁industry	-10.6024
▁Research	-10.6024
▁Second	-10.6024
▁compliance	-10.6024
▁economic	-10.6024
▁inclusion	-10.6024
▁machine	-10.6024
▁international	-10.6024
▁occurring	-10.6024
▁editor	-10.6025
▁awareness	-10.6025
▁complicated	-10.6025
▁Nia	-10.6026
▁10%	-10.6027
▁followers	-10.6028
▁Institute	-10.6028
▁Lee	-10.6032
▁meaningless	-10.6033
▁criminal	-10.6035
▁College	-10.6036
▁pregnant	-10.6036
▁psychiatry	-10.6036
▁damn	-10.6036
▁credit	-10.6036
▁channel	-10.6036
▁educators	-10.6036
▁rever	-10.6037
▁shooting	-10.6037
▁ideologues	-10.6038
▁ensur	-10.6038
▁discrimination	-10.6039
▁dresses	-10.604
▁authority	-10.6041
▁def	-10.6042
▁approaches	-10.6043
▁anger	-10.6044
▁19.	-10.6045
▁brainwashed	-10.6047
▁Puberty	-10.6048
▁Could	-10.6048
▁tire	-10.6048
▁TV	-10.6048
▁Sch	-10.605
▁smaller	-10.6057
▁Good	-10.6057
▁scared	-10.6057
_2	-10.6058
▁46	-10.606
▁Remember	-10.606
▁conscious	-10.606
▁rapid	-10.6061
▁embarrassed	-10.6062
▁quickly	-10.6063
▁Give	-10.6064
▁excell	-10.6066
Rapid	-10.607
▁attended	-10.6071
▁stock	-10.6072
▁forward	-10.6074
going	-10.6075
▁incident	-10.6078
=1	-10.608
▁objectively	-10.6086
▁inclusive	-10.6087
▁shot	-10.6087
▁useless	-10.6092
▁protest	-10.6093
▁mainly	-10.6102
▁total	-10.6103
▁motivat	-10.6105
▁primar	-10.6106
▁universal	-10.6106
▁censored	-10.6107
▁Students	-10.611
▁strangers	-10.6111
▁ruin	-10.6114
▁land	-10.6114
▁voters	-10.6118
▁cons	-10.6121
▁training	-10.6124
ero	-10.6128
▁crying	-10.6131
▁5%	-10.6136
wn	-10.6139
/?	-10.614
▁Lol	-10.6142
▁assumptions	-10.6147
▁demographics	-10.6147
▁groomers	-10.6147
▁ob	-10.6154
really	-10.6165
light	-10.6169
▁demon	-10.6179
▁bare	-10.6179
▁hot	-10.6184
▁painful	-10.6184
▁outcomes	-10.6185
▁decrease	-10.6188
▁criticize	-10.619
▁debates	-10.6197
▁foundation	-10.6203
▁forum	-10.6206
▁fly	-10.621
▁prompt	-10.6213
▁correctly	-10.6216
▁cat	-10.6236
▁leaders	-10.6243
▁pedos	-10.6259
35	-10.626
▁sincere	-10.626
▁wondering	-10.6262
▁partner	-10.6263
▁Boys	-10.6266
▁leftists	-10.6269
▁Ty	-10.627
▁picking	-10.6271
au	-10.628
Everyone	-10.6294
▁wigs	-10.6297
▁chemicals	-10.6311
▁trap	-10.6324
▁prescrib	-10.6333
▁affirmative	-10.6339
ian	-10.6341
▁abused	-10.6341
▁friendly	-10.6355
▁topics	-10.6358
uring	-10.6359
5/	-10.6362
▁waiting	-10.6377
▁2017	-10.6384
ird	-10.6389
▁badly	-10.6404
▁gov	-10.6413
tri	-10.6421
pped	-10.6422
▁learning	-10.6435
▁statistic	-10.6436
▁Joe	-10.6441
▁apologize	-10.6446
▁21.	-10.6448
▁scores	-10.6451
▁interviews	-10.6452
though	-10.6454
▁dedicat	-10.6464
.11	-10.6524
arian	-10.6525
▁grounds	-10.6527
▁verb	-10.6538
▁closet	-10.654
▁tie	-10.6544
ade	-10.655
Fe	-10.6553
▁participate	-10.6558
▁Johns	-10.6566
using	-10.6567
▁subs	-10.657
▁runs	-10.657
38	-10.6584
▁tool	-10.66
▁experts	-10.6605
/2018/	-10.6607
ology	-10.6616
▁21	-10.662
▁cap	-10.6633
78	-10.6636
ient	-10.6644
▁powers	-10.6672
▁fellow	-10.6674
23	-10.6687
da	-10.6688
▁plans	-10.6698
▁affects	-10.6708
!!	-10.6724
64	-10.6753
misunderstanding	-10.6758
aking	-10.6767
▁cultures	-10.6783
cu	-10.6788
▁rooms	-10.6802
ward	-10.6808
ear	-10.6813
pping	-10.6831
ened	-10.6841
”)	-10.6857
av	-10.6862
▁DA	-10.689
▁prov	-10.6898
▁cared	-10.691
▁detransition	-10.6921
▁file	-10.6936
▁25.	-10.6954
▁$	-10.6964
▁500	-10.6971
ady	-10.6977
▁helpful	-10.6984
▁n	-10.6998
▁goals	-10.7004
▁lines	-10.7007
ief	-10.701
vi	-10.7024
▁arrive	-10.7033
.6	-10.705
VE	-10.7064
81	-10.7064
rates	-10.7068
▁compet	-10.7075
most	-10.7102
2015	-10.712
▁Ra	-10.713
▁smoke	-10.7141
Co	-10.7148
ctively	-10.7149
▁Jud	-10.7162
▁pattern	-10.7167
▁email	-10.7169
▁pedo	-10.7174
▁lecture	-10.7175
▁image	-10.7177
▁bank	-10.7181
▁brother	-10.7181
▁trait	-10.7183
▁eye	-10.7186
▁tattoo	-10.7187
▁interaction	-10.7188
▁sport	-10.7189
▁symptom	-10.719
▁gun	-10.7193
self	-10.7196
▁Boy	-10.7206
▁leftist	-10.7206
di	-10.7237
▁2011	-10.7249
fo	-10.7252
▁night	-10.7255
▁reduc	-10.7263
managed	-10.7278
▁San	-10.7282
bb	-10.7303
▁career	-10.731
form	-10.7325
▁origin	-10.7331
▁cheat	-10.7339
hetero	-10.7344
him	-10.7347
Okay	-10.7348
typical	-10.7349
wide	-10.7351
natural	-10.7352
32	-10.7352
▁2000	-10.7353
lgbt	-10.7355
assessment	-10.7356
bullying	-10.7357
?"	-10.7357
.9	-10.7357
contact	-10.7357
conversion	-10.7357
Please	-10.7358
Where	-10.7358
public	-10.7358
▁via	-10.7358
report	-10.7358
identification	-10.7358
high	-10.7359
student	-10.7359
appropriate	-10.7359
patient	-10.7359
group	-10.7359
help	-10.736
community	-10.736
Even	-10.736
someone	-10.7362
▁ignor	-10.7364
story	-10.7374
▁conflat	-10.7375
talk	-10.7376
36	-10.738
▁attend	-10.7384
ological	-10.7389
▁Ver	-10.7394
▁rid	-10.7399
generation	-10.7403
friends	-10.7406
▁exact	-10.7407
▁manipulate	-10.7408
▁proper	-10.7408
IN	-10.7415
▁surprise	-10.7415
▁bus	-10.7418
plos	-10.7424
conservatives	-10.7424
▁dem	-10.7426
▁Van	-10.7434
▁str	-10.7436
▁corrupt	-10.7441
▁corporat	-10.7442
▁distinct	-10.7442
▁champion	-10.7445
▁slight	-10.7445
▁episode	-10.7445
▁Bertie	-10.7446
▁Clearly	-10.7446
▁Epstein	-10.7446
▁HRT	-10.7446
▁Lappert	-10.7446
▁activity	-10.7446
▁analysis	-10.7446
▁ashamed	-10.7446
▁authentic	-10.7446
▁categories	-10.7446
▁complex	-10.7446
▁disturbed	-10.7446
▁nonsensical	-10.7446
▁perpetuate	-10.7446
▁reproduce	-10.7446
▁stretch	-10.7446
ō	-10.7446
▁Christmas	-10.7446
▁Greek	-10.7446
▁adorable	-10.7446
▁asshole	-10.7446
▁covid	-10.7446
▁diminish	-10.7446
▁horrific	-10.7446
▁lmao	-10.7446
▁organic	-10.7446
▁praise	-10.7446
▁relations	-10.7446
▁screen	-10.7446
▁transhumanism	-10.7446
▁1990	-10.7446
▁Jonath	-10.7446
▁Publish	-10.7446
▁Sign	-10.7446
▁Three	-10.7446
▁contain	-10.7446
▁utiliz	-10.7446
▁ethical	-10.7446
washington	-10.7446
▁artificial	-10.7446
▁firm	-10.7446
Chinese	-10.7446
▁Jungian	-10.7446
▁Indian	-10.7446
▁domestic	-10.7446
▁Jazz	-10.7446
▁proceed	-10.7446
▁tragic	-10.7446
▁opponent	-10.7446
▁peace	-10.7446
▁symbol	-10.7446
▁freak	-10.7446
▁lawyer	-10.7446
▁boss	-10.7446
▁wife	-10.7446
▁describing	-10.7446
▁Life	-10.7446
▁task	-10.7446
esbian	-10.7446
medium	-10.7446
▁hostility	-10.7446
▁Onset	-10.7446
▁substance	-10.7446
▁cell	-10.7446
▁tendenc	-10.7446
▁Under	-10.7446
▁nineteen	-10.7446
▁household	-10.7446
▁chopping	-10.7446
▁ballet	-10.7446
▁customers	-10.7446
▁madness	-10.7446
▁declaration	-10.7446
▁trash	-10.7447
▁Equality	-10.7447
▁prefix	-10.7447
▁William	-10.7447
Correct	-10.7447
▁embarrassment	-10.7447
▁conscience	-10.7447
▁replacement	-10.7447
▁funding	-10.7447
▁impression	-10.7447
▁Regardless	-10.7447
▁catch	-10.7447
▁chop	-10.7447
Autism	-10.7447
▁property	-10.7447
▁nuance	-10.7447
▁insight	-10.7447
▁transsexualism	-10.7447
▁Body	-10.7448
▁genetic	-10.7448
▁oppression	-10.7448
▁torment	-10.7448
text	-10.7448
▁Arkansas	-10.7448
normative	-10.7448
▁coff	-10.7448
▁gold	-10.7448
▁seat	-10.7449
▁crap	-10.7449
▁hook	-10.7449
▁fixation	-10.7449
▁dictate	-10.7449
▁Become	-10.745
▁grace	-10.745
▁James	-10.745
▁jail	-10.7452
▁trauma	-10.7452
▁sweat	-10.7453
▁Transsexual	-10.7453
▁Caitlyn	-10.7453
▁Society	-10.7453
▁Steensma	-10.7453
▁Therapy	-10.7453
▁conquer	-10.7453
▁vocabulary	-10.7453
▁road	-10.7453
▁sufficient	-10.7454
▁ARE	-10.7454
▁denial	-10.7455
▁disappear	-10.7455
Dr	-10.7456
▁piss	-10.7457
▁ALL	-10.7457
▁Christianity	-10.7458
▁weather	-10.7458
▁update	-10.7458
▁hid	-10.746
▁faster	-10.746
▁White	-10.7461
mastectomies	-10.7462
▁legitimate	-10.7462
▁thoughtful	-10.7463
▁Pres	-10.7463
▁behaviors	-10.7465
▁delusional	-10.7466
▁bud	-10.7466
▁Obviously	-10.7467
▁peterson	-10.7467
▁Except	-10.7467
▁Normal	-10.7468
▁spiritual	-10.7468
▁title	-10.7468
▁bridge	-10.7468
▁GSA	-10.7468
▁circumstances	-10.747
▁masses	-10.747
▁transformation	-10.7471
con	-10.7473
▁threat	-10.7478
▁signaling	-10.7485
▁wishes	-10.7486
▁downvote	-10.7486
▁properly	-10.7487
▁excited	-10.7487
▁Sa	-10.7488
horrifie	-10.7489
▁granted	-10.749
▁locker	-10.749
▁outright	-10.7493
▁stronger	-10.7494
consuming	-10.7494
▁Me	-10.7495
▁English	-10.7496
▁ONE	-10.7497
▁normalized	-10.7499
08/	-10.75
WAY	-10.7502
asha	-10.7503
▁brainwashing	-10.7509
ously	-10.751
▁triggered	-10.7511
▁effectively	-10.7512
▁limited	-10.7513
▁consideration	-10.7518
▁City	-10.752
unk	-10.752
dom	-10.7521
▁heav	-10.7522
▁Lauren	-10.7527
▁equality	-10.7527
—“	-10.7527
▁lately	-10.7527
▁interpreted	-10.7529
▁improved	-10.7529
▁capable	-10.753
▁Nobody	-10.7533
▁damag	-10.7533
bread	-10.7536
▁refus	-10.7539
▁meds	-10.7544
▁union	-10.7544
▁pulled	-10.7548
▁Sorry	-10.7553
▁magical	-10.7555
Try	-10.7555
▁Best	-10.7556
▁distracted	-10.7558
▁meme	-10.756
uff	-10.7562
▁Persons	-10.7562
ga	-10.7566
▁\*	-10.7569
rous	-10.7569
▁shower	-10.7576
▁organize	-10.7582
▁blog	-10.7584
▁harden	-10.7589
▁phrases	-10.7597
▁Times	-10.7597
▁Ja	-10.7601
▁sus	-10.7605
▁bigge	-10.7606
▁Af	-10.7613
▁Bas	-10.7617
92	-10.7623
ank	-10.7624
▁brings	-10.7638
▁missed	-10.7638
▁circles	-10.7641
upload	-10.7644
▁ideal	-10.7645
▁2011)	-10.7647
▁(2016)	-10.7662
▁demanded	-10.7662
ario	-10.7664
then	-10.7682
▁parades	-10.7684
NK	-10.7691
▁medications	-10.7693
▁Republicans	-10.7693
lines	-10.7695
-16	-10.7695
▁Got	-10.772
▁banks	-10.7728
▁targeted	-10.7737
night	-10.7743
nn	-10.7743
▁addressed	-10.7747
▁player	-10.7767
outhern	-10.777
▁balls	-10.7772
▁throats	-10.7773
▁2019)	-10.7773
▁Elliott	-10.7806
▁Los	-10.7808
▁nations	-10.7819
ES	-10.7832
▁levels	-10.7857
▁fo	-10.786
▁diagnoses	-10.7863
Nope	-10.7867
▁wi	-10.7868
▁inter	-10.7882
cardi	-10.7884
ern	-10.7897
▁courts	-10.7906
▁hospitals	-10.7906
▁recogniz	-10.791
▁cha	-10.7913
▁8,	-10.7923
do	-10.7932
LL	-10.7968
▁lay	-10.798
Hi	-10.7997
▁delusions	-10.7997
▁enforce	-10.8026
ffs	-10.8028
cal	-10.8032
39	-10.8034
▁pa	-10.8053
▁castrate	-10.8056
56	-10.8064
Someone	-10.8067
surgery	-10.8079
▁k	-10.8081
performed	-10.8086
▁games	-10.8089
them	-10.8101
▁th	-10.8119
▁driv	-10.8144
hew	-10.8146
Ya	-10.8162
▁continu	-10.8177
ome	-10.8182
ug	-10.8183
▁shov	-10.8202
▁bas	-10.8228
LE	-10.8228
73	-10.8236
/4	-10.825
ians	-10.8258
▁advocat	-10.8283
▁gu	-10.829
eenagers	-10.8292
don	-10.8294
▁constitution	-10.8304
▁addition	-10.8332
-1	-10.8334
shi	-10.8336
▁Drag	-10.834
▁Comment	-10.8357
erous	-10.837
cel	-10.8372
▁char	-10.8384
▁Pr	-10.8425
▁supporter	-10.8428
discovery	-10.8439
eanwhile	-10.8447
▁debat	-10.8462
▁pressures	-10.8462
▁blacks	-10.8463
2016),	-10.8463
rguably	-10.8495
Some	-10.8498
fringe	-10.8502
▁rap	-10.8542
akes	-10.8556
▁couples	-10.8558
▁fe	-10.8561
▁Sta	-10.8571
▁regrett	-10.8586
.10	-10.8622
ru	-10.865
wards	-10.8655
rray	-10.8667
▁Back	-10.8724
▁govern	-10.8728
▁tra	-10.8732
tle	-10.8737
▁South	-10.8744
▁discriminat	-10.8771
ab	-10.8791
▁assign	-10.8819
▁strike	-10.882
▁supplie	-10.882
▁exception	-10.8827
▁physician	-10.8828
▁connection	-10.883
▁preference	-10.8836
▁movie	-10.8836
▁Republican	-10.8837
▁Nazi	-10.8838
▁Ar	-10.884
▁psychiatrist	-10.8842
▁parade	-10.8843
▁medication	-10.8843
▁vaccine	-10.8844
br	-10.885
▁gri	-10.885
ix	-10.8855
3%	-10.886
▁flu	-10.8874
anna	-10.8876
affirm	-10.8925
identify	-10.893
▁infl	-10.8935
▁criticiz	-10.8948
ge	-10.8958
▁cute	-10.896
▁Thank	-10.897
▁critic	-10.8974
▁beat	-10.8975
▁spe	-10.8977
tf	-10.8985
ite	-10.8986
▁emerge	-10.899
▁CA	-10.8999
fertility	-10.9005
mut	-10.9007
wise	-10.901
ject	-10.9011
mark	-10.9014
▁program	-10.9014
der	-10.9015
▁absen	-10.9016
▁decid	-10.9018
prepared	-10.9019
igned	-10.902
capable	-10.902
count	-10.9022
track	-10.9022
▁graduate	-10.9022
psychology	-10.9022
diagnose	-10.9022
March	-10.9023
inclusive	-10.9023
informed	-10.9023
under	-10.9023
message	-10.9024
▁build	-10.9024
Nobody	-10.9025
puberty	-10.9025
know	-10.9025
Reddit	-10.9025
feminine	-10.9025
fix	-10.9025
Women	-10.9026
Health	-10.9026
study	-10.9026
white	-10.9026
power	-10.9026
Also	-10.9026
Ok	-10.9026
having	-10.9026
world	-10.9027
left	-10.9027
medical	-10.9027
media	-10.9028
masculine	-10.9028
▁ches	-10.903
when	-10.903
cool	-10.9031
after	-10.9031
hold	-10.9032
board	-10.9033
always	-10.9034
▁divid	-10.9034
both	-10.9042
ran	-10.9045
▁thin	-10.9048
▁edit	-10.9051
call	-10.9052
op	-10.9059
▁Des	-10.9061
▁sur	-10.9073
▁literal	-10.9075
▁persist	-10.9076
may	-10.9076
▁dri	-10.9077
.5	-10.9079
every	-10.9086
▁mall	-10.909
▁hug	-10.9091
compose	-10.9093
▁fantas	-10.9094
▁Ratio	-10.9094
▁Sim	-10.9096
▁sun	-10.9098
▁luck	-10.9098
▁lobby	-10.9099
Kids	-10.9102
▁educate	-10.9103
▁eliminate	-10.9103
▁restrict	-10.9105
▁crush	-10.9107
stood	-10.911
▁camp	-10.911
ronic	-10.911
▁compel	-10.9111
▁skeptic	-10.9111
▁explanat	-10.9111
▁assess	-10.9112
▁deni	-10.9112
▁ethnic	-10.9112
ROGD	-10.9112
▁High	-10.9112
▁courage	-10.9112
Control	-10.9112
Current	-10.9112
proximate	-10.9112
▁Clinton	-10.9112
▁Columbus	-10.9112
▁Faith	-10.9112
▁Gaga	-10.9112
▁Hippocrat	-10.9112
▁Hollywood	-10.9112
▁McKinnon	-10.9112
▁Michel	-10.9112
▁Ozzie	-10.9112
▁Reimer	-10.9112
▁Similar	-10.9112
▁Watters	-10.9112
▁advance	-10.9112
▁athletic	-10.9112
▁boundaries	-10.9112
▁cigarette	-10.9112
▁classroom	-10.9112
▁curricula	-10.9112
▁dildo	-10.9112
▁dream	-10.9112
▁frankly	-10.9112
▁iPhone	-10.9112
▁inhabit	-10.9112
▁neighbor	-10.9112
▁proposal	-10.9112
▁protocol	-10.9112
▁rebellion	-10.9112
▁reinforce	-10.9112
▁satanic	-10.9112
▁scapegoat	-10.9112
▁semantic	-10.9112
▁sharp	-10.9112
▁straightforward	-10.9112
▁striking	-10.9112
▁terrible	-10.9112
▁urethra	-10.9112
▁welfare	-10.9112
▁worship	-10.9112
▁Affirmation	-10.9112
▁Complete	-10.9112
▁Contagion	-10.9112
▁breastfeed	-10.9112
▁detriment	-10.9112
▁nefarious	-10.9112
▁rude	-10.9112
▁torture	-10.9112
▁whatsoever	-10.9112
▁Brook	-10.9112
▁District	-10.9112
▁Target	-10.9112
▁built	-10.9112
▁disguise	-10.9112
▁tech	-10.9112
▁combin	-10.9112
▁Georg	-10.9112
▁Meaning	-10.9112
▁Soros	-10.9112
▁podcast	-10.9112
▁simul	-10.9112
▁talent	-10.9112
▁racism	-10.9112
▁Satan	-10.9112
▁tongue	-10.9112
▁Agenda	-10.9112
▁classmates	-10.9112
▁instant	-10.9112
▁gym	-10.9112
▁football	-10.9112
▁narrow	-10.9112
▁neurological	-10.9112
▁retain	-10.9112
▁guilt	-10.9112
▁outgrow	-10.9112
▁dancing	-10.9112
▁homophobia	-10.9112
▁imperfect	-10.9112
▁Detransitioner	-10.9112
▁random	-10.9112
TORA	-10.9112
▁external	-10.9112
▁Porn	-10.9112
▁feat	-10.9112
▁tough	-10.9112
▁Little	-10.9112
▁responsibility	-10.9112
▁clitoris	-10.9112
▁Cave	-10.9113
▁favorite	-10.9113
▁novel	-10.9113
▁mole	-10.9113
▁neo	-10.9113
california	-10.9113
▁Remission	-10.9113
▁sister	-10.9113
▁hostile	-10.9113
▁discredit	-10.9113
▁communication	-10.9113
▁emphasize	-10.9113
berg	-10.9113
Kelowna	-10.9113
▁fuel	-10.9113
▁split	-10.9113
▁Childhood	-10.9113
archive	-10.9113
▁penguin	-10.9113
▁reckless	-10.9113
▁Neur	-10.9113
▁chose	-10.9113
▁seventeen	-10.9113
▁thick	-10.9113
▁impressive	-10.9113
▁speculative	-10.9113
Push	-10.9113
▁idiots	-10.9113
▁surprising	-10.9113
▁manipulation	-10.9113
▁chair	-10.9113
▁sensation	-10.9113
▁mile	-10.9113
▁mob	-10.9114
▁lining	-10.9114
▁assembly	-10.9114
▁dramatically	-10.9114
▁chromosomes	-10.9114
▁Queen	-10.9114
▁horror	-10.9114
▁Survey	-10.9114
▁menopause	-10.9114
▁productive	-10.9114
▁rip	-10.9114
▁endeavor	-10.9114
▁straw	-10.9114
/2019/	-10.9114
▁investment	-10.9114
▁preschool	-10.9114
▁participation	-10.9114
▁communist	-10.9114
▁horse	-10.9115
▁thus	-10.9115
▁enthusiasm	-10.9115
▁unknown	-10.9115
GIDS	-10.9115
▁observable	-10.9115
▁misery	-10.9115
▁cash	-10.9116
▁hyper	-10.9116
▁Angeles	-10.9116
sharing	-10.9116
▁overlap	-10.9116
▁steep	-10.9116
▁unconscious	-10.9116
partially	-10.9116
▁concluded	-10.9116
▁flow	-10.9117
▁camera	-10.9117
▁Joel	-10.9117
▁Face	-10.9117
▁intersex	-10.9117
▁corruption	-10.9117
▁globalist	-10.9117
▁pants	-10.9117
▁highlight	-10.9117
▁spell	-10.9117
lord	-10.9117
▁slave	-10.9118
▁crushes	-10.9118
=08	-10.9118
▁trace	-10.9118
▁labor	-10.9118
▁shave	-10.9118
CEOs	-10.9118
▁Made	-10.9119
▁gang	-10.9119
▁immigrant	-10.912
▁procreate	-10.912
▁noticing	-10.9121
▁unreasonable	-10.9121
▁lip	-10.9121
▁chain	-10.9121
▁hunt	-10.9121
▁stable	-10.9121
▁creation	-10.9121
▁Binding	-10.9122
▁Google	-10.9122
▁Scientific	-10.9122
▁Spectrum	-10.9122
▁experiencing	-10.9122
▁intelligent	-10.9122
▁Great	-10.9122
▁vagina	-10.9122
▁shadow	-10.9122
Ap	-10.9122
▁😂	-10.9122
▁predomina	-10.9122
▁Personally	-10.9123
▁counseling	-10.9123
▁hyster	-10.9123
▁secondary	-10.9123
▁societies	-10.9123
▁admitting	-10.9124
▁imo	-10.9124
▁wealthy	-10.9124
▁obsession	-10.9124
▁curse	-10.9125
▁expand	-10.9125
▁smile	-10.9125
▁requirement	-10.9125
▁psychi	-10.9125
▁spin	-10.9126
▁Week	-10.9127
▁profile	-10.9127
▁LO	-10.9127
▁mandate	-10.9128
▁accusation	-10.9128
▁individualism	-10.9128
cious	-10.9128
▁specialist	-10.9129
▁administrators	-10.9129
▁sold	-10.913
▁flipped	-10.913
▁coerced	-10.9131
kept	-10.9131
▁USA	-10.9132
▁stigma	-10.9132
▁sho	-10.9132
ndex	-10.9133
▁Law	-10.9133
traditional	-10.9133
▁Want	-10.9134
▁primary	-10.9134
▁growth	-10.9134
▁headline	-10.9134
▁deplatform	-10.9135
▁upper	-10.9136
8)	-10.9136
▁starve	-10.9136
▁stream	-10.9138
▁WPATH	-10.9138
▁activism	-10.9138
▁error	-10.9138
▁Source	-10.9138
▁hire	-10.9138
▁July	-10.9138
▁tolerance	-10.9138
adical	-10.9139
▁chapter	-10.9139
▁chaos	-10.9139
▁regulation	-10.914
▁amazing	-10.9141
▁Billy	-10.9141
▁Feel	-10.9141
▁mor	-10.9141
▁dying	-10.9142
▁War	-10.9143
▁blow	-10.9143
flated	-10.9147
▁driver	-10.9147
▁SO	-10.9148
▁gather	-10.9149
▁Moses	-10.9149
▁global	-10.915
▁Find	-10.9153
ural	-10.9154
▁Jam	-10.9155
▁computer	-10.9155
▁destructive	-10.9155
▁immutable	-10.9155
▁master	-10.9155
▁Talk	-10.9155
Meta	-10.9156
institutional	-10.9158
▁disgusting	-10.9159
▁denies	-10.9162
▁misgendered	-10.9165
▁section	-10.9166
▁spot	-10.9169
19/	-10.9169
▁jp	-10.9169
▁Cec	-10.917
▁Make	-10.917
▁edge	-10.9171
▁classes	-10.9172
itz	-10.9174
▁Rand	-10.9174
▁settle	-10.9175
▁wars	-10.9175
▁edited	-10.9176
▁feeding	-10.9178
▁spoken	-10.9183
▁behavioral	-10.9184
▁realis	-10.919
▁Activists	-10.9191
▁Pediatrics	-10.9191
▁Rates	-10.9191
had	-10.9194
cake	-10.9196
▁responders	-10.9196
▁cooking	-10.9196
▁declared	-10.9197
▁bullies	-10.92
▁regularly	-10.92
50	-10.9202
▁ride	-10.9211
▁gen	-10.9211
▁harassed	-10.9212
sive	-10.9212
aten	-10.9212
desisters	-10.9224
eem	-10.9232
▁mentality	-10.9236
▁equally	-10.9238
▁understandable	-10.9241
▁skills	-10.9242
▁priests	-10.9242
▁ON	-10.9245
▁lightly	-10.9246
▁ta	-10.9249
▁Rule	-10.925
deology	-10.9252
▁flying	-10.9253
▁insulting	-10.9253
▁prepared	-10.9258
▁lab	-10.9259
inflation	-10.9264
▁Mon	-10.9266
▁alarming	-10.9272
▁phobia	-10.9275
▁goth	-10.9276
▁Isn	-10.9277
gr	-10.9294
▁nipples	-10.9294
▁principles	-10.9294
▁skip	-10.9294
▁rabbi	-10.9294
▁irre	-10.9296
▁deri	-10.9298
▁brave	-10.9307
▁marketing	-10.9309
▁evolve	-10.9321
▁affirmed	-10.9332
▁sexes	-10.9337
▁bend	-10.9339
pend	-10.9342
▁performances	-10.9346
▁suits	-10.9346
hapter	-10.9347
ultu	-10.9348
▁2:	-10.935
▁visiting	-10.9353
329	-10.9358
▁loser	-10.9362
▁troubl	-10.9362
45	-10.9363
▁plann	-10.9372
herald	-10.938
tes	-10.9387
▁insisted	-10.9391
ME	-10.9396
▁preferences	-10.9399
▁movies	-10.9406
▁equate	-10.9407
escent	-10.9408
▁traditionally	-10.9409
holders	-10.9421
▁breaking	-10.9424
▁Fin	-10.9434
▁scan	-10.9442
▁nights	-10.9451
▁emails	-10.9452
▁patterns	-10.9452
▁num	-10.9466
▁researcher	-10.9467
dicated	-10.9477
▁destroyed	-10.9486
mal	-10.9489
▁fed	-10.949
▁stepp	-10.95
▁Yeah	-10.9504
.7	-10.9506
Statistical	-10.9506
mer	-10.954
▁promot	-10.9544
elling	-10.9556
▁prospect	-10.9562
eating	-10.9565
ban	-10.9582
AD	-10.9606
▁bones	-10.9607
47	-10.9621
▁arriv	-10.9622
▁referenc	-10.9638
▁standing	-10.964
ID	-10.9651
▁Em	-10.9652
zed	-10.966
equality	-10.9661
▁Le	-10.9662
▁discover	-10.9667
▁purposes	-10.9672
ule	-10.9676
▁wa	-10.9679
TE	-10.9685
▁violat	-10.969
▁pop	-10.9697
uc	-10.9736
▁reader	-10.9746
▁adding	-10.9753
ight	-10.9759
/3	-10.976
▁alienat	-10.9762
!"	-10.9783
▁invest	-10.9789
▁pieces	-10.9831
SS	-10.9843
▁paint	-10.9859
vice	-10.9862
.19	-10.9863
publication	-10.9873
Bro	-10.9899
▁normally	-10.9905
gh	-10.9926
▁bro	-10.9938
.20	-10.9972
▁messages	-10.9993
ops	-10.9997
▁elites	-10.9999
80	-11.0024
70	-11.0033
▁mal	-11.0035
-4	-11.0039
▁lifestyles	-11.0056
▁Fi	-11.0061
▁acc	-11.0066
▁practic	-11.0093
▁alien	-11.0103
fu	-11.0113
ailing	-11.0124
▁slipp	-11.0124
cha	-11.0132
ung	-11.0133
wr	-11.0149
drawn	-11.0151
37	-11.0155
▁Na	-11.0157
BO	-11.0161
rate	-11.0164
ison	-11.0182
▁ye	-11.0191
54	-11.0191
see	-11.0215
▁Bar	-11.0242
gen	-11.0272
ctional	-11.0281
▁freedoms	-11.0286
▁instances	-11.0286
▁readi	-11.0287
▁BE	-11.0296
▁Jo	-11.0324
▁meal	-11.0344
esp	-11.0345
utistic	-11.0375
52	-11.0383
▁hip	-11.0383
▁steps	-11.0414
▁conce	-11.042
▁indoctrinat	-11.0443
▁fade	-11.0459
uidelines	-11.0467
ext	-11.0486
ential	-11.0488
2/	-11.0519
▁l	-11.0533
▁grip	-11.0538
Referred	-11.0539
vidence	-11.0543
ttle	-11.0573
▁responses	-11.0581
formation	-11.0618
omething	-11.0644
▁Mari	-11.0652
=2	-11.0656
▁nut	-11.0662
▁stra	-11.0684
parable	-11.0694
parent	-11.0733
anning	-11.0736
▁equat	-11.0763
▁limit	-11.0763
▁founding	-11.0776
boy	-11.0782
reach	-11.0793
reme	-11.0797
ride	-11.0816
▁modification	-11.082
traight	-11.0821
▁brains	-11.0825
ceived	-11.0827
▁nerve	-11.0831
▁refu	-11.0837
▁injection	-11.0837
▁suit	-11.0839
▁circle	-11.084
▁Use	-11.0844
ction	-11.0847
▁performance	-11.0849
▁journalist	-11.0851
evolved	-11.0863
▁ran	-11.0864
▁corporation	-11.0865
ani	-11.0866
▁outcome	-11.0874
war	-11.0881
▁wall	-11.0882
▁prison	-11.0886
maker	-11.0887
▁queen	-11.0894
revention	-11.09
▁Car	-11.09
▁pedophile	-11.0901
▁requir	-11.0915
▁Dia	-11.0921
▁leader	-11.0922
cult	-11.0934
▁Julia	-11.0935
human	-11.0936
ware	-11.0943
▁original	-11.0943
OR	-11.0944
▁downvot	-11.0947
RE	-11.0949
▁TO	-11.0955
▁2010	-11.0966
▁motivate	-11.0969
ong	-11.097
came	-11.0975
▁misgender	-11.0976
former	-11.0987
▁tear	-11.0987
▁dop	-11.1003
Un	-11.1008
Lmao	-11.101
▁inciden	-11.1012
▁religions	-11.1012
function	-11.1015
responders	-11.102
happy	-11.102
homosexual	-11.1021
review	-11.1022
depopulation	-11.1022
direct	-11.1023
earn	-11.1024
Social	-11.1024
Mental	-11.1024
pronoun	-11.1024
box	-11.1024
abnormal	-11.1025
turn	-11.1025
LGBT	-11.1025
politics	-11.1025
meaning	-11.1026
meet	-11.1026
number	-11.1026
clinic	-11.1026
definition	-11.1026
looking	-11.1026
Like	-11.1026
physical	-11.1026
agenda	-11.1026
history	-11.1026
scientific	-11.1026
ESG	-11.1026
therapy	-11.1026
society	-11.1026
three	-11.1026
identity	-11.1027
stock	-11.1027
dysphoria	-11.1027
▁cook	-11.1027
back	-11.1028
neither	-11.1028
against	-11.1029
access	-11.1029
class	-11.1029
comments	-11.1029
Let	-11.103
▁excel	-11.1032
▁enabl	-11.1032
topic	-11.1033
safe	-11.1035
cause	-11.1035
magazine	-11.1036
Sure	-11.104
▁recover	-11.1042
▁thrill	-11.1042
▁dig	-11.1043
today	-11.1046
▁consult	-11.1047
▁embarrass	-11.1048
▁trigger	-11.1049
▁statu	-11.105
case	-11.1052
▁swee	-11.1054
bert	-11.1055
might	-11.1057
▁grant	-11.1059
Call	-11.1061
force	-11.1063
Their	-11.1064
gage	-11.1066
rais	-11.1069
▁Hate	-11.107
love	-11.1073
One	-11.1077
phobe	-11.1078
▁replace	-11.1079
olds	-11.1081
embrac	-11.1082
▁tro	-11.1086
▁prepare	-11.1092
▁relate	-11.1095
▁wealth	-11.1098
▁opportunit	-11.1098
▁tho	-11.1099
▁manifest	-11.11
USE	-11.1102
onforming	-11.1105
▁flip	-11.1105
producing	-11.1109
▁awkward	-11.111
▁LGB	-11.111
▁entertain	-11.111
tupid	-11.111
▁disrespect	-11.1111
aap	-11.1111
▁dramatic	-11.1111
▁script	-11.1111
▁responsib	-11.1112
▁identi	-11.1112
▁traffic	-11.1112
iagnostic	-11.1112
instagram	-11.1112
ompanies	-11.1112
▁frequent	-11.1112
Objective	-11.1112
‹	-11.1112
▁Adolescence	-11.1112
▁Alliance	-11.1112
▁Beauty	-11.1112
▁Bitcoin	-11.1112
▁Chicago	-11.1112
▁Destroy	-11.1112
▁DeviantArt	-11.1112
▁Framework	-11.1112
▁Guardian	-11.1112
▁Hebrew	-11.1112
▁Jehovah	-11.1112
▁Korol	-11.1112
▁McLean	-11.1112
▁Rogan	-11.1112
▁Schuster	-11.1112
▁Smartphone	-11.1112
▁Strange	-11.1112
▁Telfer	-11.1112
▁Tucker	-11.1112
▁Wisconsin	-11.1112
▁arises	-11.1112
▁association	-11.1112
▁available	-11.1112
▁biblical	-11.1112
▁blonde	-11.1112
▁celebrities	-11.1112
▁chamber	-11.1112
▁cherry	-11.1112
▁clarify	-11.1112
▁concrete	-11.1112
▁contemplating	-11.1112
▁crypto	-11.1112
▁despair	-11.1112
▁discourage	-11.1112
▁disrupt	-11.1112
▁eligible	-11.1112
▁empathetic	-11.1112
▁enemies	-11.1112
▁euphoria	-11.1112
▁expedient	-11.1112
▁floor	-11.1112
▁garner	-11.1112
▁harbor	-11.1112
▁hyperbole	-11.1112
▁hypothesis	-11.1112
▁implement	-11.1112
▁importance	-11.1112
▁influencing	-11.1112
▁instinct	-11.1112
▁intrigue	-11.1112
▁jurisdiction	-11.1112
▁marginalized	-11.1112
▁maturity	-11.1112
▁mimic	-11.1112
▁mirror	-11.1112
▁monkey	-11.1112
▁occupy	-11.1112
▁opioid	-11.1112
▁premise	-11.1112
▁secure	-11.1112
▁sentiment	-11.1112
▁sneak	-11.1112
▁sophomore	-11.1112
▁staff	-11.1112
▁stereotypical	-11.1112
▁strategy	-11.1112
▁stubborn	-11.1112
▁supplement	-11.1112
▁thriving	-11.1112
▁umbrella	-11.1112
▁uneducated	-11.1112
▁yourselves	-11.1112
glitter	-11.1112
istori	-11.1112
▁Amanda	-11.1112
▁COVID	-11.1112
▁Church	-11.1112
▁Covid	-11.1112
▁Generation	-11.1112
▁HarperCollins	-11.1112
▁click	-11.1112
▁coincide	-11.1112
▁cream	-11.1112
▁eager	-11.1112
▁enlighten	-11.1112
▁hacker	-11.1112
▁kingdom	-11.1112
▁sample	-11.1112
▁trivial	-11.1112
▁unusual	-11.1112
▁France	-11.1112
▁smear	-11.1112
Transhumanism	-11.1112
▁Biden	-11.1112
▁Pharma	-11.1112
▁unhealthy	-11.1112
▁film	-11.1112
▁riot	-11.1112
▁commentator	-11.1112
▁eleven	-11.1112
▁obstacles	-11.1112
▁plus	-11.1112
EVEN	-11.1112
▁clout	-11.1112
▁gaslight	-11.1112
▁capabilities	-11.1112
▁mechanism	-11.1112
▁Greg	-11.1112
▁sympathetic	-11.1112
▁convey	-11.1112
▁fragile	-11.1112
▁knock	-11.1112
▁leak	-11.1112
▁multi	-11.1112
Professional	-11.1112
▁terminology	-11.1112
OOD	-11.1112
▁facing	-11.1112
▁versa	-11.1112
▁duct	-11.1112
▁Start	-11.1112
▁broadcast	-11.1112
▁forearm	-11.1112
▁cra	-11.1112
▁execute	-11.1112
▁flatten	-11.1112
▁Case	-11.1112
▁induce	-11.1112
▁drastic	-11.1112
▁dehumaniz	-11.1112
▁slope	-11.1112
▁precocious	-11.1112
wreck	-11.1113
▁screw	-11.1113
Actually	-11.1113
shaping	-11.1113
▁remote	-11.1113
tiktok	-11.1113
▁conference	-11.1113
empt	-11.1113
▁solid	-11.1113
▁extend	-11.1113
▁Mind	-11.1113
▁Twi	-11.1113
▁textbook	-11.1113
▁blank	-11.1113
▁buddy	-11.1113
▁tactic	-11.1113
▁degenerate	-11.1113
▁fulfill	-11.1113
▁kink	-11.1113
UCK	-11.1113
▁foot	-11.1113
▁survivors	-11.1113
▁flood	-11.1113
▁Herald	-11.1113
-12223171/	-11.1113
▁Put	-11.1113
▁midst	-11.1113
filthy	-11.1113
▁isolation	-11.1113
▁1980	-11.1113
▁flap	-11.1113
▁reset	-11.1113
▁disrespectful	-11.1113
▁1950	-11.1113
▁stamp	-11.1113
▁Oregon	-11.1113
▁punch	-11.1113
▁Thus	-11.1113
▁hrt	-11.1113
▁menstruate	-11.1113
▁hysteria	-11.1113
▁fond	-11.1113
▁DNA	-11.1113
▁viewpoint	-11.1114
▁thigh	-11.1114
/2023/06/	-11.1114
▁cities	-11.1114
▁2006	-11.1114
▁compassionate	-11.1114
▁dropping	-11.1114
▁arbitrary	-11.1114
▁exploration	-11.1114
▁Plus	-11.1114
▁skepticism	-11.1114
▁60%	-11.1114
metric	-11.1114
▁legislation	-11.1114
▁DOH	-11.1115
▁oste	-11.1115
▁Increase	-11.1115
▁Arch	-11.1115
▁utilit	-11.1115
▁fourteen	-11.1115
▁outlet	-11.1115
▁Than	-11.1115
▁2007	-11.1115
igure	-11.1115
▁fantasies	-11.1115
indsay	-11.1115
▁tax	-11.1116
▁persuade	-11.1116
Damn	-11.1116
▁dosage	-11.1116
best	-11.1116
▁undermine	-11.1116
▁compromise	-11.1116
▁lump	-11.1117
▁Heather	-11.1117
.17	-11.1117
▁cruelty	-11.1117
▁offspring	-11.1117
undan	-11.1117
cepti	-11.1117
amine	-11.1117
▁Germany	-11.1117
▁analogy	-11.1117
▁gates	-11.1117
▁loose	-11.1117
▁virus	-11.1117
▁Unfortunately	-11.1117
Data	-11.1118
▁Online	-11.1118
▁Turner	-11.1118
▁shoes	-11.1119
▁Jack	-11.1119
▁cop	-11.1119
▁defeat	-11.1119
▁vary	-11.1119
▁crop	-11.1119
▁tries	-11.112
mental	-11.112
▁Policy	-11.112
▁reputation	-11.1121
▁suppression	-11.1121
▁pric	-11.1121
resources	-11.1121
▁kindergarten	-11.1121
▁subtle	-11.1122
▁witnesses	-11.1122
▁measurement	-11.1122
▁accommodate	-11.1122
isease	-11.1122
▁Christ	-11.1123
▁celebration	-11.1123
▁reputa	-11.1123
▁sober	-11.1124
▁Step	-11.1124
▁Consider	-11.1124
▁Physical	-11.1124
▁TPTB	-11.1124
▁TikTok	-11.1124
▁judgment	-11.1124
▁relieved	-11.1124
▁unethical	-11.1124
▁Check	-11.1124
▁Question	-11.1124
▁Court	-11.1124
▁AIDS	-11.1124
▁sadness	-11.1124
▁boot	-11.1124
UT	-11.1125
▁nightmare	-11.1125
▁display	-11.1125
ateful	-11.1125
▁approval	-11.1125
▁Illinois	-11.1125
▁interse	-11.1126
▁persistent	-11.1126
tane	-11.1126
▁Literally	-11.1127
▁Male	-11.1127
▁operation	-11.1127
▁perversion	-11.1127
▁debt	-11.1127
▁Hope	-11.1127
▁endure	-11.1128
▁pose	-11.1129
▁lingeri	-11.1131
▁inclin	-11.1131
▁healthier	-11.1132
▁varie	-11.1132
▁thorough	-11.1133
▁nonconforming	-11.1133
▁heighten	-11.1134
▁generous	-11.1134
▁DE	-11.1134
▁twisted	-11.1134
▁fish	-11.1134
▁Ray	-11.1135
▁Sup	-11.1135
▁contradiction	-11.1135
▁strive	-11.1136
▁prox	-11.1136
vision	-11.1136
▁suggestion	-11.1137
tanding	-11.1138
▁viewers	-11.1138
▁Seriously	-11.1138
▁unfortunately	-11.1138
▁antichrist	-11.1139
▁bound	-11.1141
▁contribute	-11.1143
pioneer	-11.1143
▁generate	-11.1144
▁gene	-11.1144
▁pregnancy	-11.1144
▁scale	-11.1144
▁Blackrock	-11.1145
▁worn	-11.1145
▁morning	-11.1145
▁alteration	-11.1146
▁insert	-11.1146
▁Everything	-11.1147
▁pause	-11.1147
▁binding	-11.1148
▁commentary	-11.1148
▁Amer	-11.1148
▁colleagues	-11.1148
▁debunked	-11.1149
▁enacted	-11.1149
▁Swed	-11.1149
▁Psychologist	-11.1149
▁Somehow	-11.1151
▁50%	-11.1152
▁Constitution	-11.1153
▁useful	-11.1154
▁Really	-11.1157
▁pie	-11.1158
lex	-11.1159
echo	-11.1159
▁hideous	-11.116
▁fee	-11.1163
▁Mass	-11.1164
▁bor	-11.1165
▁$$$	-11.1166
▁tri	-11.1167
▁stone	-11.1168
▁graft	-11.1168
Here	-11.117
▁emo	-11.117
▁Take	-11.1171
▁examined	-11.1172
▁button	-11.1173
▁code	-11.1175
▁agreement	-11.1177
▁dated	-11.1181
▁observed	-11.1183
▁internally	-11.1184
too	-11.1184
▁sexist	-11.1186
▁Division	-11.1187
adults	-11.1188
other	-11.1189
▁infertile	-11.119
▁speed	-11.1193
▁manipulated	-11.1194
▁oppressed	-11.1196
died	-11.1203
last	-11.1204
IV	-11.1204
temporary	-11.1206
▁accommodations	-11.121
▁connotations	-11.121
▁boring	-11.1216
▁dismissed	-11.1221
▁overall	-11.1226
rump	-11.1227
▁deceive	-11.1234
▁Craz	-11.1234
▁alarmed	-11.1237
saf	-11.124
acy	-11.1244
▁marker	-11.1248
▁sal	-11.1248
▁Mc	-11.1249
elementary	-11.125
▁pressed	-11.1251
▁painting	-11.1252
▁YouTuber	-11.1252
10/	-11.1261
XX	-11.1265
▁threatened	-11.1266
▁nazis	-11.1274
▁employees	-11.1274
▁scars	-11.1278
▁round	-11.1279
▁35	-11.128
▁syn	-11.128
hoking	-11.1281
dding	-11.1282
nan	-11.1282
▁protesting	-11.1284
▁republicans	-11.1286
▁meeting	-11.1302
confirmation	-11.1309
▁warning	-11.1314
▁recommended	-11.1324
dling	-11.1325
ney	-11.1326
▁deadly	-11.1326
▁allegation	-11.1328
▁Comp	-11.133
something	-11.1332
mag	-11.1333
▁photos	-11.1333
▁fixate	-11.1335
▁meanings	-11.134
▁Sh	-11.1345
▁explor	-11.1349
ou	-11.135
ION	-11.1358
▁capitalis	-11.1363
▁trail	-11.1365
▁privately	-11.1365
sexuality	-11.1368
▁mu	-11.137
By	-11.1372
udi	-11.1374
▁finding	-11.1376
▁affected	-11.1379
▁Pe	-11.1383
▁rejected	-11.1384
pat	-11.1395
▁Pl	-11.1396
tuned	-11.1397
▁colleges	-11.14
▁meetings	-11.1403
▁injections	-11.1404
▁nerves	-11.1405
late	-11.1412
lish	-11.1414
ifying	-11.1423
▁bio	-11.1433
▁limits	-11.1439
ock	-11.1457
▁News	-11.1464
lon	-11.1466
▁Nazis	-11.147
▁physicians	-11.147
▁grab	-11.1473
▁*"	-11.1499
▁cite	-11.1501
04	-11.1502
schools	-11.1517
▁pan	-11.1521
slam	-11.1526
▁opt	-11.1546
▁45	-11.1556
▁tomboy	-11.16
▁careers	-11.1607
llness	-11.1618
detransitioner	-11.1633
▁validat	-11.1636
uit	-11.1649
ET	-11.1652
stop	-11.1653
Are	-11.1657
▁plant	-11.1669
▁Others	-11.1671
▁costs	-11.1671
▁materials	-11.1671
▁profits	-11.1672
arma	-11.1673
▁variations	-11.1673
suming	-11.1689
HE	-11.1693
▁testing	-11.1695
▁sup	-11.1702
igma	-11.1708
NO	-11.1714
▁fle	-11.1727
netheless	-11.173
gate	-11.1731
▁Was	-11.1736
▁fails	-11.1749
bil	-11.1756
09	-11.176
bm	-11.1781
▁badge	-11.1784
▁Ri	-11.179
teens	-11.179
▁specializ	-11.1799
HS	-11.18
▁platforms	-11.1801
55	-11.1807
▁crimes	-11.1807
link	-11.1818
race	-11.1823
functional	-11.1828
▁greatly	-11.1853
.23	-11.1874
▁indulge	-11.1889
thwa	-11.189
▁GI	-11.191
▁demonize	-11.1912
aps	-11.1935
▁Ann	-11.1959
▁85	-11.1963
71/	-11.1964
KJ	-11.1968
▁solve	-11.1974
▁maintains	-11.2016
95	-11.2025
SE	-11.2028
those	-11.2054
/201	-11.2072
▁Mar	-11.2079
tag	-11.2084
▁writes	-11.2089
12/	-11.2089
rings	-11.2098
▁Mor	-11.2112
▁denigrate	-11.2115
▁Has	-11.2117
▁disc	-11.2145
▁loo	-11.2157
.14	-11.216
▁kindly	-11.2176
▁dose	-11.2187
1/	-11.2206
seven	-11.2218
aged	-11.2234
▁liber	-11.2238
▁Teenage	-11.2241
llow	-11.2269
AN	-11.2275
nything	-11.2306
our	-11.2308
rgo	-11.232
rated	-11.2325
.18	-11.2326
”).	-11.2369
owned	-11.2392
▁bans	-11.2393
AR	-11.2402
ater	-11.242
▁tre	-11.2423
0202	-11.243
ace	-11.2438
▁air	-11.2438
▁hi	-11.245
own	-11.2475
lad	-11.248
Ch	-11.2487
......	-11.2487
ised	-11.249
▁links	-11.2491
pite	-11.2518
Ou	-11.2544
▁36	-11.2545
2)	-11.2577
ups	-11.2591
verse	-11.2593
info	-11.2593
▁chi	-11.2616
▁hopeful	-11.2621
▁wears	-11.2628
.12	-11.2629
▁DO	-11.2634
▁strict	-11.2638
▁hung	-11.2639
▁Fo	-11.2668
▁Po	-11.2677
▁41	-11.2695
▁stopp	-11.2696
▁imp	-11.2709
ino	-11.2748
ssent	-11.2756
63	-11.2779
.1.	-11.2789
mph	-11.2792
minded	-11.2794
▁WH	-11.2794
Wi	-11.2798
han	-11.2803
▁validate	-11.2825
lder	-11.283
Forc	-11.2831
▁ni	-11.2831
kicked	-11.2837
▁generaliz	-11.2838
61	-11.2842
ense	-11.2843
▁consume	-11.2845
aren	-11.2847
▁reference	-11.2847
▁plague	-11.2848
ritish	-11.2851
hr	-11.2851
/2	-11.2881
Hey	-11.2905
65	-11.2929
▁chas	-11.2938
bill	-11.2966
lan	-11.2997
▁abus	-11.3002
question	-11.3014
▁sing	-11.3027
▁60	-11.303
wave	-11.3043
43	-11.3046
ei	-11.3069
▁propose	-11.3096
rail	-11.3115
RI	-11.3118
▁blo	-11.3132
Ver	-11.3135
▁vita	-11.314
lib	-11.3154
▁bur	-11.3163
▁Idea	-11.3163
ken	-11.3175
ENTS	-11.3195
▁RE	-11.3215
88	-11.3223
▁controll	-11.323
AB	-11.3242
friend	-11.325
name	-11.3288
87	-11.3295
part	-11.3297
FO	-11.331
▁(19	-11.3316
▁christian	-11.3317
▁AS	-11.3323
▁boycott	-11.3324
ado	-11.3326
▁submit	-11.3329
▁nipple	-11.3334
▁principle	-11.3334
▁session	-11.3336
▁emotion	-11.3336
rose	-11.3337
▁phrase	-11.3338
▁Time	-11.3338
▁demographic	-11.334
▁guru	-11.3343
ept	-11.3345
▁folk	-11.335
▁Too	-11.3351
avi	-11.3352
▁involv	-11.3353
▁stereotype	-11.3353
▁commit	-11.3361
▁assumption	-11.3363
▁pill	-11.3368
0,000	-11.3375
▁groomer	-11.3385
▁citizen	-11.3389
98	-11.3396
ddiction	-11.3402
▁blocker	-11.3404
book	-11.3412
spect	-11.3416
serving	-11.3426
▁evaluat	-11.3428
▁sens	-11.3432
▁rot	-11.3433
▁Lea	-11.3434
fford	-11.3436
lways	-11.3437
▁Sil	-11.3438
▁brainwash	-11.3449
rivacy	-11.3453
▁FOR	-11.3454
cli	-11.3454
▁announc	-11.3458
rouse	-11.3467
▁acknowledg	-11.3471
tradition	-11.3474
his	-11.3475
special	-11.3483
lash	-11.3484
roughly	-11.3488
political	-11.3491
Sant	-11.3494
present	-11.3495
▁inspir	-11.3497
\	-11.35
ticky	-11.35
▁addict	-11.3501
bodies	-11.3502
downs	-11.3504
Depopulation	-11.351
Gues	-11.3511
put	-11.3513
urge	-11.3513
fertile	-11.3513
point	-11.3514
Population	-11.3515
meta	-11.3515
conscious	-11.3515
style	-11.3516
▁awaken	-11.3516
teenage	-11.3517
Division	-11.3518
ONE	-11.3519
leaders	-11.352
English	-11.352
national	-11.3521
Good	-11.3521
Remember	-11.3521
course	-11.3522
JBP	-11.3522
Abigail	-11.3522
toxic	-11.3522
guardian	-11.3522
rapid	-11.3522
▁engineer	-11.3523
Dec	-11.3524
hidden	-11.3524
balance	-11.3524
Teen	-11.3524
anorexia	-11.3524
Again	-11.3524
blockers	-11.3524
believe	-11.3525
break	-11.3525
cultural	-11.3525
More	-11.3525
supportive	-11.3525
Girl	-11.3525
2020	-11.3525
label	-11.3525
Gay	-11.3525
dangerous	-11.3525
attack	-11.3525
spread	-11.3525
generally	-11.3525
buy	-11.3525
compelled	-11.3526
includ	-11.3526
Children	-11.3526
perhaps	-11.3526
risk	-11.3526
birth	-11.3526
Peterson	-11.3526
government	-11.3526
DSM	-11.3526
Benji	-11.3526
treatment	-11.3526
good	-11.3527
would	-11.3527
family	-11.3527
Maybe	-11.3527
free	-11.3527
culture	-11.3528
house	-11.3529
become	-11.3531
fight	-11.3531
apparently	-11.3531
pride	-11.3533
▁prop	-11.3533
role	-11.3534
transphobia	-11.3534
sane	-11.3537
▁oppress	-11.3537
hard	-11.3537
Jan	-11.3539
alter	-11.3539
sites	-11.3539
online	-11.354
step	-11.354
Does	-11.3542
▁dump	-11.3543
▁pray	-11.3543
▁poison	-11.3543
ttering	-11.3543
middle	-11.3545
▁adjust	-11.3546
Care	-11.3549
▁Earth	-11.355
▁AB	-11.355
misgendering	-11.3552
Isn	-11.3553
▁demonstra	-11.3554
daughter	-11.3556
completely	-11.3557
▁invent	-11.3557
chest	-11.3558
▁resume	-11.3568
feel	-11.3569
▁norm	-11.3571
▁brief	-11.3572
▁suppose	-11.3574
pane	-11.3576
aft	-11.3579
▁hypocri	-11.358
called	-11.358
▁Giv	-11.3581
▁centr	-11.3581
▁sexualize	-11.3584
isgendering	-11.3585
ball	-11.3586
minor	-11.3586
▁dro	-11.3587
▁mode	-11.3587
▁Bren	-11.3589
▁tyrann	-11.3596
▁Angel	-11.3596
plan	-11.3596
▁satisf	-11.3597
▁Left	-11.3598
rolled	-11.3599
▁facilitate	-11.3599
▁urin	-11.36
hell	-11.3601
lcome	-11.3601
▁square	-11.3604
▁Turn	-11.3605
▁product	-11.3605
etween	-11.3606
FR	-11.3606
ouche	-11.3607
▁Egypt	-11.3607
airs	-11.3609
icted	-11.3609
anguage	-11.3609
word	-11.3609
▁exam	-11.3609
Affirm	-11.3609
retty	-11.361
▁boom	-11.361
▁feminis	-11.361
994	-11.361
athroom	-11.361
▁eradicate	-11.361
retending	-11.361
ositive	-11.3611
fall	-11.3611
~	-11.3611
/2022/0	-11.3611
tails	-11.3611
▁interfere	-11.3611
ampaign	-11.3611
ultiple	-11.3612
ikipedia	-11.3612
OUR	-11.3612
bsessive	-11.3612
▁pigs	-11.3612
emphasi	-11.3612
phoria	-11.3612
▁sympath	-11.3612
ndrogyn	-11.3612
▁Through	-11.3612
▁atrophy	-11.3612
34-19810901	-11.3612
Alternative	-11.3612
MOTED	-11.3612
Micah	-11.3612
Rebecca	-11.3612
Semantic	-11.3612
True	-11.3612
consequential	-11.3612
empirical	-11.3612
immutability	-11.3612
é	-11.3612
▁Barbie	-11.3612
▁Blake	-11.3612
▁Breast	-11.3612
▁Cohort	-11.3612
▁England	-11.3612
▁Erik	-11.3612
▁Eventually	-11.3612
▁Failure	-11.3612
▁Group	-11.3612
▁IDENTITY	-11.3612
▁Jersey	-11.3612
▁Jontry	-11.3612
▁Kergil	-11.3612
▁Kindergarten	-11.3612
▁Kravetz	-11.3612
▁Navratilova	-11.3612
▁Nordstrom	-11.3612
▁PLUS	-11.3612
▁PMDD	-11.3612
▁Practice	-11.3612
▁Pronoun	-11.3612
▁Russia	-11.3612
▁SCHOOL	-11.3612
▁Taylor	-11.3612
▁Virginia	-11.3612
▁accuracy	-11.3612
▁advocacy	-11.3612
▁catastrophe	-11.3612
▁catholic	-11.3612
▁certificate	-11.3612
▁chicken	-11.3612
▁clarity	-11.3612
▁clique	-11.3612
▁clue	-11.3612
▁compensat	-11.3612
▁correlate	-11.3612
▁devastating	-11.3612
▁dialogue	-11.3612
▁dinner	-11.3612
▁discharge	-11.3612
▁eugenecist	-11.3612
▁executi	-11.3612
▁fabric	-11.3612
▁frogs	-11.3612
▁hilarious	-11.3612
▁license	-11.3612
▁minimum	-11.3612
▁osteoporosis	-11.3612
▁paradigm	-11.3612
▁pituitary	-11.3612
▁politicized	-11.3612
▁purchase	-11.3612
▁purport	-11.3612
▁redistribut	-11.3612
▁retreat	-11.3612
▁routine	-11.3612
▁sacred	-11.3612
▁season	-11.3612
▁skeleton	-11.3612
▁skew	-11.3612
▁smell	-11.3612
▁snowflake	-11.3612
▁sterile	-11.3612
▁surrender	-11.3612
▁taxpayer	-11.3612
▁terribly	-11.3612
▁transexuals	-11.3612
▁tweens	-11.3612
▁ultra	-11.3612
EDIT	-11.3612
▁BLM	-11.3612
▁Binder	-11.3612
▁Business	-11.3612
▁Crowd	-11.3612
▁GENDER	-11.3612
▁Hardell	-11.3612
▁Hospital	-11.3612
▁Parenthood	-11.3612
▁TESTOSTERONE	-11.3612
▁abundance	-11.3612
▁caution	-11.3612
▁clever	-11.3612
▁dignity	-11.3612
▁dissatisf	-11.3612
▁enlarge	-11.3612
▁imagination	-11.3612
▁insinuat	-11.3612
▁irrelevant	-11.3612
▁location	-11.3612
▁masculinity	-11.3612
▁mood	-11.3612
▁pawns	-11.3612
▁relief	-11.3612
▁replied	-11.3612
▁repress	-11.3612
▁sustain	-11.3612
▁vessels	-11.3612
▁wound	-11.3612
▁Disney	-11.3612
▁Quit	-11.3612
▁Self	-11.3612
▁advertis	-11.3612
▁brutal	-11.3612
▁confrontation	-11.3612
▁cruci	-11.3612
▁distaste	-11.3612
▁negate	-11.3612
▁network	-11.3612
▁outliers	-11.3612
▁pierc	-11.3612
▁reiterate	-11.3612
▁skirt	-11.3612
▁sprout	-11.3612
▁strides	-11.3612
▁tbh	-11.3612
▁abrupt	-11.3612
▁ratio	-11.3612
▁shaming	-11.3612
CAMH	-11.3612
▁cartoon	-11.3612
▁disprove	-11.3612
▁distort	-11.3612
▁invitation	-11.3612
▁lonely	-11.3612
pocket	-11.3612
uttmacher	-11.3612
vergreen	-11.3612
▁Years	-11.3612
▁latch	-11.3612
▁organis	-11.3612
▁storm	-11.3612
gallup	-11.3612
▁cheer	-11.3612
▁ruling	-11.3612
▁Change	-11.3612
▁Protecti	-11.3612
▁Cosby	-11.3612
▁ancient	-11.3612
Pubertal	-11.3612
▁singular	-11.3612
Federal	-11.3612
▁retire	-11.3612
▁boost	-11.3612
▁disfigur	-11.3612
▁pandemic	-11.3612
▁terrorism	-11.3612
▁Abraham	-11.3612
▁enthus	-11.3612
▁fetus	-11.3612
▁resigned	-11.3612
▁Culture	-11.3612
▁Yale	-11.3612
▁shirt	-11.3612
▁exceed	-11.3612
▁stunning	-11.3612
▁buck	-11.3612
▁depict	-11.3612
▁exaggerating	-11.3612
▁summer	-11.3612
▁vocal	-11.3612
46-20091127	-11.3612
London	-11.3612
▁Besides	-11.3612
▁Skylar	-11.3612
▁flaws	-11.3612
17/	-11.3612
▁IMO	-11.3612
▁Version	-11.3612
▁rewrit	-11.3612
▁Listen	-11.3612
▁Gates	-11.3612
▁Often	-11.3612
▁acqui	-11.3612
▁concert	-11.3612
▁undertake	-11.3612
costume	-11.3612
▁dishonest	-11.3612
▁salut	-11.3612
swimmer	-11.3612
▁butcher	-11.3613
▁endometri	-11.3613
▁5193	-11.3613
▁certifi	-11.3613
▁climb	-11.3613
▁gener	-11.3613
▁gentle	-11.3613
Factors	-11.3613
▁btw	-11.3613
▁immoral	-11.3613
▁Joh	-11.3613
Fuck	-11.3613
▁Charl	-11.3613
▁rebellious	-11.3613
▁barrier	-11.3613
/2017/	-11.3613
Dude	-11.3613
▁predat	-11.3613
▁sidewalks	-11.3613
▁whipping	-11.3613
sidents	-11.3613
▁Government	-11.3613
▁Summ	-11.3613
▁trafficking	-11.3613
▁psycho	-11.3613
▁cease	-11.3613
▁intimate	-11.3613
▁GIRLS	-11.3613
fortune	-11.3613
▁widespread	-11.3613
▁heroin	-11.3613
western	-11.3613
▁signature	-11.3613
▁reign	-11.3613
▁wherever	-11.3613
▁desistance	-11.3613
▁pollut	-11.3613
▁Canadian	-11.3613
▁greed	-11.3613
▁hesitation	-11.3613
Yep	-11.3613
▁lend	-11.3613
▁lawsuits	-11.3613
▁stead	-11.3613
▁generalisation	-11.3613
▁complications	-11.3613
▁drama	-11.3613
▁Hop	-11.3613
▁Peter	-11.3613
▁sinner	-11.3613
▁deepened	-11.3613
moon	-11.3614
▁devil	-11.3614
▁pathetic	-11.3614
▁Wikipedia	-11.3614
▁oath	-11.3614
▁uter	-11.3614
▁House	-11.3614
▁cramp	-11.3614
▁slic	-11.3614
▁elective	-11.3614
▁pursuit	-11.3614
▁acne	-11.3614
▁sheep	-11.3614
/1665	-11.3614
▁cousins	-11.3614
▁shake	-11.3614
▁spade	-11.3614
▁dysmorphia	-11.3614
▁crash	-11.3614
▁coast	-11.3614
▁commitment	-11.3615
sibly	-11.3615
▁shelters	-11.3615
▁subset	-11.3615
▁boomers	-11.3615
▁integrity	-11.3615
▁robb	-11.3615
▁Ethan	-11.3615
▁humor	-11.3615
▁artery	-11.3615
▁1994	-11.3615
▁empathize	-11.3615
▁subscribe	-11.3615
▁stability	-11.3615
▁inquiry	-11.3615
▁Work	-11.3615
▁Speak	-11.3615
▁Psyche	-11.3615
▁Home	-11.3615
▁sentence	-11.3615
▁accent	-11.3615
Section	-11.3615
▁2004	-11.3615
▁Female	-11.3615
▁Media	-11.3615
▁falsehood	-11.3615
▁awkwardness	-11.3616
▁radio	-11.3616
▁tenet	-11.3616
▁sight	-11.3616
▁fancy	-11.3616
▁problematic	-11.3616
▁personalities	-11.3616
▁1930	-11.3616
▁revision	-11.3616
limina	-11.3616
▁Additional	-11.3616
▁breed	-11.3616
lang	-11.3616
▁assert	-11.3616
▁intend	-11.3616
.31	-11.3616
▁heels	-11.3616
shelter	-11.3617
▁1999	-11.3617
▁stalk	-11.3617
▁civilization	-11.3617
▁factor	-11.3617
lenty	-11.3617
▁Matt	-11.3617
▁accessible	-11.3617
▁speculation	-11.3617
▁device	-11.3617
9301	-11.3617
INE	-11.3617
▁Month	-11.3617
▁tum	-11.3618
Taking	-11.3618
▁wonderful	-11.3618
▁Rise	-11.3618
▁variant	-11.3618
▁reform	-11.3618
doi	-11.3618
▁homeschool	-11.3618
▁vain	-11.3618
▁malice	-11.3618
▁improvement	-11.3619
▁firearm	-11.3619
▁Order	-11.3619
▁Mark	-11.3619
▁fifty	-11.3619
▁store	-11.3619
##	-11.3619
▁unconditionally	-11.3619
▁Know	-11.3619
digital	-11.3619
▁gross	-11.3619
▁pushback	-11.362
ogue	-11.362
▁unsafe	-11.362
▁finger	-11.362
hen	-11.362
▁outcast	-11.362
▁pervade	-11.362
▁edition	-11.362
▁route	-11.362
▁Vir	-11.362
▁wow	-11.362
▁denounce	-11.3621
▁32.	-11.3621
▁Penn	-11.3621
▁90%	-11.3621
itation	-11.3621
Yup	-11.3621
▁ego	-11.3621
540	-11.3621
▁alert	-11.3621
▁entit	-11.3622
▁gro	-11.3622
▁Super	-11.3622
lum	-11.3623
▁misguided	-11.3623
▁collected	-11.3623
spring	-11.3623
▁manufactured	-11.3623
▁date	-11.3623
▁condon	-11.3623
▁hole	-11.3624
▁THI	-11.3624
TO	-11.3625
▁Regard	-11.3625
▁artic	-11.3625
controversy	-11.3625
▁birthday	-11.3625
▁clash	-11.3625
20/	-11.3625
▁Rose	-11.3626
▁profitable	-11.3626
▁wholesome	-11.3626
▁myster	-11.3627
▁normalize	-11.3627
mind	-11.3627
▁assist	-11.3627
arranged	-11.3627
▁indicator	-11.3627
▁bright	-11.3627
▁remarkable	-11.3627
▁tolerate	-11.3627
legislature	-11.3627
Men	-11.3627
▁Chu	-11.3627
ilia	-11.3628
▁Amendment	-11.3628
▁currency	-11.3628
▁Athlete	-11.3628
▁BlackRock	-11.3628
▁Global	-11.3628
▁Homosexuality	-11.3628
▁Liberal	-11.3628
▁Period	-11.3628
▁analyst	-11.3628
▁applicable	-11.3628
▁celebrity	-11.3628
▁conspiracies	-11.3628
▁ethics	-11.3628
▁internship	-11.3628
▁glamor	-11.3628
▁wrestl	-11.3628
▁Project	-11.3628
▁Basically	-11.3628
▁rampant	-11.3628
▁Riley	-11.3628
Tell	-11.3629
▁investigation	-11.3629
▁Tanne	-11.363
▁billion	-11.363
▁objection	-11.363
▁sufferers	-11.363
▁exposure	-11.363
▁misogyny	-11.363
▁technology	-11.363
▁entertainment	-11.3631
▁polite	-11.3631
▁colloquial	-11.3631
▁publicized	-11.3631
▁categorization	-11.3632
dged	-11.3632
▁pair	-11.3633
▁Dani	-11.3636
▁fantasy	-11.3636
▁lucky	-11.3636
▁tv	-11.3637
struct	-11.3637
▁sway	-11.3637
▁concede	-11.3637
Sadly	-11.3638
unge	-11.3638
▁confine	-11.3638
entry	-11.3639
▁beset	-11.3639
Brenda	-11.364
▁wedding	-11.364
▁forgiven	-11.3641
▁detached	-11.3641
▁persecuted	-11.3641
wired	-11.3641
▁DW	-11.3642
▁explicit	-11.3642
▁respective	-11.3642
▁Cole	-11.3642
▁exp	-11.3643
▁churches	-11.3643
▁gamete	-11.3643
▁casually	-11.3643
▁immediate	-11.3644
▁sat	-11.3644
Or	-11.3644
▁urinate	-11.3644
gur	-11.3644
ature	-11.3644
▁transcentric	-11.3645
▁hopeless	-11.3646
▁setting	-11.3646
▁Teena	-11.3646
▁alive	-11.3647
▁rent	-11.3649
ounced	-11.365
▁haters	-11.365
▁surge	-11.365
your	-11.365
▁reminder	-11.365
▁dear	-11.3651
▁philosopher	-11.3651
keep	-11.3653
strong	-11.3654
▁evident	-11.3655
▁FTM	-11.3655
▁Smith	-11.3655
▁MSM	-11.3655
adolescents	-11.3655
▁pornography	-11.3655
activists	-11.3655
▁briefly	-11.3656
pone	-11.3656
▁vax	-11.3657
09/	-11.3657
▁Doctor	-11.3657
▁brown	-11.3657
▁dar	-11.3657
▁Kel	-11.3657
▁shade	-11.3657
▁Ellen	-11.3658
▁sterilis	-11.3659
▁Brain	-11.3659
▁adjectives	-11.3659
▁acute	-11.366
▁urge	-11.366
▁sink	-11.366
▁desisted	-11.3661
zen	-11.3662
centric	-11.3666
▁manual	-11.3666
▁introduce	-11.3667
▁denot	-11.3668
▁removal	-11.3669
HOR	-11.3669
PS	-11.3669
autogynephiles	-11.3669
▁Cent	-11.3669
▁cere	-11.367
▁brand	-11.3671
▁vir	-11.3673
▁feed	-11.3674
▁dancer	-11.3675
▁Creat	-11.3675
▁indicate	-11.3676
cut	-11.3676
Her	-11.3677
commons	-11.3677
▁Appl	-11.3678
▁outlaw	-11.3678
▁invented	-11.3679
▁nowhere	-11.368
▁Sudden	-11.3683
▁smartphone	-11.3683
▁default	-11.3683
▁Interesting	-11.3683
▁credible	-11.3683
▁Sound	-11.3683
▁Say	-11.3683
▁Money	-11.3683
▁candy	-11.3686
▁employer	-11.3687
▁boyish	-11.369
▁google	-11.369
posit	-11.369
▁survived	-11.3691
ctor	-11.3691
cycle	-11.3697
▁pad	-11.3699
▁accident	-11.37
-2017	-11.3701
▁(200	-11.3702
▁oversee	-11.3703
swim	-11.3704
▁\	-11.3706
▁sued	-11.3706
▁breathe	-11.3707
polar	-11.3709
▁Population	-11.3711
main	-11.3714
▁replaced	-11.3715
▁guaranteed	-11.3716
▁safer	-11.3716
▁scare	-11.3721
▁Jane	-11.3723
▁Love	-11.3724
▁tempt	-11.3726
▁educated	-11.3727
▁roughly	-11.373
▁Convers	-11.3733
lem	-11.3733
▁box	-11.3738
spiration	-11.3741
▁genitals	-11.3741
▁approved	-11.3742
▁detransitioned	-11.3742
▁Pen	-11.3743
▁dys	-11.3744
▁enable	-11.3747
▁Ari	-11.3751
opt	-11.3752
▁soul	-11.3757
nick	-11.3758
▁tee	-11.3759
▁swing	-11.3762
2017	-11.3764
suing	-11.3767
▁upvote	-11.3769
▁shocked	-11.3776
▁sla	-11.3778
▁transwoman	-11.3782
▁discovering	-11.3786
two	-11.3793
▁requested	-11.3795
▁Okay	-11.3795
▁Lin	-11.3806
▁mutilated	-11.3807
▁song	-11.3808
▁cheating	-11.3813
▁risky	-11.3816
▁gl	-11.3824
▁mongering	-11.3824
▁gifts	-11.3826
▁Romans	-11.3826
▁Hormones	-11.3826
▁attributes	-11.3828
▁addiction	-11.3831
▁sticki	-11.3832
▁2017)	-11.3836
genderqueer	-11.3845
▁Arm	-11.3849
-19	-11.3851
▁Martin	-11.3856
many	-11.3859
ardi	-11.3875
▁fixed	-11.3875
owl	-11.3876
▁unite	-11.3879
▁Read	-11.3884
▁Violen	-11.3886
▁valued	-11.3887
▁Wor	-11.3893
▁checked	-11.3893
omed	-11.3898
–12	-11.3899
▁submitt	-11.3904
▁documented	-11.3905
boys	-11.3906
straight	-11.391
–6	-11.391
▁sessions	-11.3912
▁christians	-11.3912
parents	-11.3914
▁analyze	-11.3917
Then	-11.3927
▁boycotts	-11.3928
eight	-11.3929
speak	-11.3929
publications	-11.3934
cott	-11.3934
▁meta	-11.3935
▁ice	-11.3935
oliticians	-11.3938
▁imagined	-11.3939
▁rile	-11.3946
▁altered	-11.3949
▁Exp	-11.3953
▁wondered	-11.3955
nor	-11.3958
▁willingly	-11.396
▁desir	-11.3964
nonymous	-11.3965
▁bust	-11.3965
ook	-11.397
▁2003.	-11.3976
ssa	-11.3976
▁closed	-11.3977
mong	-11.3977
▁boil	-11.3981
▁forbid	-11.3987
ement	-11.3992
▁swa	-11.3993
▁cops	-11.3994
▁tears	-11.3994
▁Corporation	-11.3998
▁walls	-11.3999
▁prisons	-11.3999
▁modifications	-11.3999
▁journalists	-11.4
▁Sara	-11.4002
oooo	-11.4009
▁Ally	-11.4012
▁Ru	-11.4015
▁fi	-11.4026
▁merit	-11.4032
IC	-11.4034
▁LI	-11.4042
▁victimiz	-11.4044
originally	-11.4053
▁actor	-11.4064
▁assaulted	-11.4072
pul	-11.4079
▁exceptions	-11.4087
▁strikes	-11.4087
▁supplies	-11.4087
▁connections	-11.4088
▁feds	-11.4088
ven	-11.4089
▁characterize	-11.41
Conservatives	-11.4108
▁spa	-11.4116
▁pervers	-11.4117
▁pu	-11.4118
iously	-11.4122
▁chem	-11.4125
▁Mr	-11.4134
eeping	-11.4136
nconforming	-11.4138
scholarly	-11.4152
▁beating	-11.4155
▁discriminate	-11.4164
▁Mu	-11.4167
nked	-11.4169
▁diet	-11.4176
▁allies	-11.4189
Dress	-11.4189
▁tended	-11.4192
▁breathing	-11.4196
62	-11.42
48	-11.4201
▁caring	-11.4204
/1	-11.4207
rred	-11.4212
▁Tom	-11.422
passers	-11.4227
yes	-11.4236
▁conclusions	-11.4267
▁elections	-11.4267
▁narcissist	-11.4269
▁Parti	-11.4271
▁dog	-11.4273
▁ward	-11.4286
▁ridicule	-11.4313
▁den	-11.4321
74	-11.4336
gone	-11.4338
▁Pro	-11.4343
▁200	-11.4349
▁Patric	-11.4355
▁anorexics	-11.4358
▁muscles	-11.4358
▁reunif	-11.4364
▁discusse	-11.4367
position	-11.439
▁Old	-11.4403
Book	-11.4415
ith	-11.4421
Di	-11.4424
ache	-11.4425
!)	-11.443
▁plagu	-11.444
137	-11.4447
poly	-11.4448
688	-11.4459
truth	-11.446
▁nurture	-11.4465
ically	-11.4468
need	-11.4485
▁Brit	-11.4489
rks	-11.449
▁Pol	-11.4502
ik	-11.4503
▁ext	-11.4503
▁su	-11.4505
▁ev	-11.4513
SA	-11.4523
▁cri	-11.4586
TU	-11.4586
PO	-11.4587
▁alleviat	-11.4595
▁IN	-11.4596
politically	-11.4606
prison	-11.4616
100	-11.4617
edge	-11.4622
▁handed	-11.4629
bible	-11.4643
EAR	-11.466
▁observe	-11.4667
while	-11.4677
ERS	-11.4684
section	-11.4687
▁2015)	-11.47
▁(2018),	-11.4701
▁gap	-11.4718
traction	-11.4726
Defini	-11.4801
ult	-11.4811
AY	-11.484
▁71	-11.4854
▁frame	-11.4857
”15	-11.4859
vin	-11.4859
Ask	-11.4864
udge	-11.4874
▁General	-11.4879
leg	-11.4897
merge	-11.4898
mostly	-11.4899
ask	-11.49
za	-11.4903
icious	-11.4906
inten	-11.4912
lving	-11.4921
▁internalize	-11.4974
headed	-11.4976
686	-11.4985
▁redefine	-11.4985
▁pub	-11.4987
Total	-11.5017
2016	-11.5019
▁misunderstand	-11.5021
▁dia	-11.504
▁Par	-11.5049
wingers	-11.5058
▁slippe	-11.5071
▁freez	-11.5089
51	-11.5101
▁integrat	-11.511
▁Ev	-11.512
06	-11.5126
isi	-11.5132
/04/	-11.5135
acco	-11.5136
▁vanish	-11.5139
etic	-11.5146
▁sc	-11.52
takes	-11.5224
arc	-11.5227
▁44	-11.5228
uri	-11.5234
▁shove	-11.5254
till	-11.5255
▁indicat	-11.5268
llen	-11.5295
ather	-11.53
▁spo	-11.5323
ette	-11.5349
▁socialize	-11.5355
▁Mo	-11.5357
LU	-11.5359
46	-11.5367
east	-11.5388
abb	-11.5392
ntroduction	-11.5405
RO	-11.5407
atic	-11.5408
ommittee	-11.5418
aid	-11.5453
-11	-11.5484
▁participat	-11.5489
nch	-11.5516
▁observ	-11.5552
▁battl	-11.5578
▁transferr	-11.5582
96	-11.5642
Uh	-11.5643
ubic	-11.565
Save	-11.5651
hill	-11.5661
inequality	-11.5677
bda	-11.5688
▁indulg	-11.5693
▁justifie	-11.5718
giv	-11.575
roo	-11.5754
liver	-11.5759
▁advis	-11.5764
joined	-11.5769
▁Har	-11.5781
fluid	-11.5784
ortality	-11.5787
▁viola	-11.5792
chemically	-11.5811
web	-11.5846
▁Ba	-11.5863
superior	-11.5879
ark	-11.588
quot	-11.5891
▁Jac	-11.5895
▁compos	-11.5897
correction	-11.5898
emo	-11.5912
▁Nation	-11.5965
DL	-11.5969
surgical	-11.5974
▁elect	-11.6013
▁ridicul	-11.6039
construction	-11.6042
UP	-11.606
oS	-11.6073
SW	-11.6084
▁kn	-11.6096
▁Com	-11.6099
▁specialize	-11.6102
00,000	-11.6114
Com	-11.6121
▁Teach	-11.6126
Divid	-11.6135
theless	-11.6152
0.1	-11.6161
akening	-11.6164
72	-11.6196
▁thr	-11.622
AS	-11.6225
robably	-11.6233
▁cla	-11.6265
ferred	-11.6266
rative	-11.6273
▁Cli	-11.6275
▁bat	-11.6289
dividual	-11.6296
▁journal	-11.6342
”16	-11.6375
▁scar	-11.6375
latin	-11.6401
ishness	-11.6409
▁bon	-11.6413
▁excit	-11.6419
spective	-11.642
02/	-11.642
▁artist	-11.6441
ocus	-11.6442
▁Pla	-11.6456
ura	-11.6456
rah	-11.6462
▁2003	-11.6464
▁Ni	-11.6474
▁nam	-11.6475
blocked	-11.6491
▁Politic	-11.6507
SU	-11.6521
head	-11.6521
▁irresp	-11.6535
▁analyz	-11.6536
▁Kar	-11.6544
load	-11.6546
laiming	-11.6553
▁capital	-11.6563
play	-11.6563
▁glass	-11.6564
grad	-11.6577
adult	-11.6579
▁organiz	-11.6596
▁sco	-11.6612
▁Col	-11.6621
▁attribute	-11.663
▁desist	-11.6639
▁prim	-11.6642
garde	-11.6651
▁release	-11.666
▁republican	-11.6663
▁nazi	-11.6663
▁employee	-11.6665
▁priest	-11.6669
ique	-11.667
▁gift	-11.667
▁Person	-11.6671
▁magic	-11.6671
ational	-11.6672
▁skill	-11.6672
▁Student	-11.6675
▁bu	-11.6675
▁Hormone	-11.6677
▁consequence	-11.668
▁characteristic	-11.6681
▁Roman	-11.6687
▁element	-11.6704
500	-11.6705
▁univers	-11.6705
▁circu	-11.6711
▁stranger	-11.6724
▁upvot	-11.6731
▁poli	-11.6753
▁2008	-11.6754
isnt	-11.6757
nel	-11.676
correct	-11.6765
Andy	-11.6786
▁Kid	-11.6786
▁temp	-11.679
.”3	-11.6791
▁Out	-11.6793
▁voter	-11.6796
▁examin	-11.6797
▁endocrin	-11.681
▁design	-11.6811
complete	-11.6814
axi	-11.6819
▁educat	-11.6823
▁improv	-11.6826
fits	-11.6829
▁bull	-11.6833
GI	-11.6841
aughter	-11.6842
Cross	-11.6844
Honestly	-11.6844
Truth	-11.6844
fascis	-11.6844
release	-11.6845
eign	-11.6848
▁cho	-11.6848
Mother	-11.6848
documented	-11.6848
Interesting	-11.6848
Sudden	-11.6848
credible	-11.6848
default	-11.6848
Money	-11.6848
explicit	-11.6848
immediate	-11.6848
Love	-11.6848
Sound	-11.6849
▁facilit	-11.6849
smartphone	-11.6849
ANY	-11.6849
▁strip	-11.6849
google	-11.6849
tomboy	-11.685
▁fright	-11.685
$$$	-11.6851
pedophile	-11.6851
button	-11.6852
computer	-11.6853
destructive	-11.6853
immutable	-11.6853
Talk	-11.6853
global	-11.6853
denies	-11.6853
connect	-11.6854
master	-11.6854
Could	-11.6855
Puberty	-11.6855
place	-11.6855
picking	-11.6855
^	-11.6855
Follow	-11.6856
Keep	-11.6856
trust	-11.6856
State	-11.6857
Human	-11.6857
apartment	-11.6857
service	-11.6857
support	-11.6857
quiet	-11.6857
Adolescent	-11.6857
industrializ	-11.6857
troubl	-11.6857
Washington	-11.6857
Would	-11.6857
grooming	-11.6858
developed	-11.6858
Report	-11.6858
May	-11.6858
admit	-11.6858
growing	-11.6858
bigotry	-11.6858
mainstream	-11.6858
perception	-11.6858
actual	-11.6858
happen	-11.6859
moral	-11.6859
significant	-11.6859
willing	-11.6859
scene	-11.6859
changing	-11.6859
false	-11.6859
protect	-11.6859
specific	-11.6859
heart	-11.6859
Look	-11.6859
neutral	-11.6859
▁surviv	-11.6859
Identity	-11.6859
religious	-11.6859
popular	-11.686
rich	-11.686
testosterone	-11.686
doctors	-11.686
agree	-11.686
consider	-11.686
again	-11.686
could	-11.686
craze	-11.6861
trend	-11.6861
rules	-11.6861
affirmation	-11.6861
little	-11.6861
fuck	-11.6862
▁replac	-11.6862
queen	-11.6862
Pride	-11.6862
everyone	-11.6863
American	-11.6863
maybe	-11.6863
country	-11.6864
bisexual	-11.6864
learn	-11.6865
home	-11.6865
regard	-11.6866
distinguish	-11.6866
between	-11.6866
kill	-11.6867
pretty	-11.6868
whatever	-11.6868
Doesn	-11.6869
eradicated	-11.6871
effects	-11.6871
paid	-11.6872
known	-11.6872
deny	-11.6874
without	-11.6876
▁monitor	-11.6876
Mos	-11.6879
mask	-11.688
aware	-11.6881
▁debunk	-11.6881
▁enact	-11.6881
beat	-11.6882
gue	-11.6883
settle	-11.6884
▁publish	-11.6884
stone	-11.6885
@	-11.6886
represent	-11.6886
threat	-11.6892
▁scen	-11.6892
Show	-11.6893
▁Rel	-11.6897
▁explo	-11.6897
lol	-11.6899
doesn	-11.6899
▁philosoph	-11.69
arge	-11.69
/13	-11.6901
▁sever	-11.6901
▁discipline	-11.6901
▁casual	-11.6902
▁legitima	-11.6903
Of	-11.6904
▁coerce	-11.6905
▁monst	-11.6905
asked	-11.6906
longer	-11.6911
open	-11.6913
▁engine	-11.6915
▁respectful	-11.6916
handed	-11.6918
▁categoriz	-11.6919
▁Trust	-11.6919
▁bless	-11.692
casta	-11.6921
iddle	-11.6921
▁disgust	-11.6921
▁legislat	-11.6921
▁survive	-11.6922
▁accommodat	-11.6923
solution	-11.6926
▁commun	-11.6926
▁sue	-11.6928
▁Refer	-11.6928
▁procreat	-11.6929
▁horribl	-11.6929
▁declin	-11.6929
questioning	-11.6931
▁hobb	-11.6931
▁stud	-11.6931
▁objectiv	-11.6932
gressive	-11.6932
jp	-11.6933
Ho	-11.6934
▁easie	-11.6935
umbl	-11.6935
Allen	-11.6935
▁recogni	-11.6936
stitute	-11.6937
▁Luc	-11.6937
▁stole	-11.6937
phrodite	-11.6938
nclusive	-11.6938
▁speculat	-11.6939
▁impress	-11.694
ICHA	-11.6941
▁confess	-11.6941
umped	-11.6941
▁afflict	-11.6941
rreversible	-11.6942
▁react	-11.6942
▁Que	-11.6942
▁steal	-11.6942
▁synonym	-11.6943
tudies	-11.6943
pirit	-11.6943
peculation	-11.6943
urprising	-11.6943
idiot	-11.6943
UST	-11.6943
▁menstrua	-11.6943
enguin	-11.6944
▁popul	-11.6944
mplications	-11.6944
historic	-11.6944
/2023/0	-11.6944
▁weapon	-11.6945
corne	-11.6945
welve	-11.6945
ncounter	-11.6945
▁ver	-11.6945
/10.10	-11.6945
exclud	-11.6945
nquiry	-11.6945
secrecy	-11.6945
▁Exce	-11.6945
stric	-11.6945
imagin	-11.6945
|	-11.6945
▁zoo	-11.6945
lah	-11.6945
68/	-11.6945
dictionary	-11.6945
▁disproportiona	-11.6945
toidioplasty	-11.6945
▁Civil	-11.6945
▁derogat	-11.6945
▁resilien	-11.6945
!1!	-11.6946
Columbia	-11.6946
Distraction	-11.6946
Dysphoric	-11.6946
IGHT	-11.6946
MURDER	-11.6946
OULD	-11.6946
TGNC	-11.6946
\*\*\*	-11.6946
equivoca	-11.6946
ippa	-11.6946
lympic	-11.6946
marxist	-11.6946
privilege	-11.6946
ritzker	-11.6946
sleeving	-11.6946
sloppy	-11.6946
stabiliz	-11.6946
utogynophil	-11.6946
vanguard	-11.6946
venues	-11.6946
voluntary	-11.6946
▁13–20	-11.6946
▁1977	-11.6946
▁1985	-11.6946
▁2+2=5	-11.6946
▁Bahamas	-11.6946
▁Baphomet	-11.6946
▁Budweiser	-11.6946
▁Cashier	-11.6946
▁Damage	-11.6946
▁Denise	-11.6946
▁Directors	-11.6946
▁Flag	-11.6946
▁Francisco	-11.6946
▁Friendship	-11.6946
▁Frontier	-11.6946
▁Furthermore	-11.6946
▁GLSEN	-11.6946
▁Graaf	-11.6946
▁Grade	-11.6946
▁Heterosexual	-11.6946
▁Hruz	-11.6946
▁HuffPost	-11.6946
▁Hughes	-11.6946
▁Identities	-11.6946
▁Jennifer	-11.6946
▁Kristi	-11.6946
▁Lukianoff	-11.6946
▁Medium	-11.6946
▁Philip	-11.6946
▁President	-11.6946
▁Pursue	-11.6946
▁SUPPORT	-11.6946
▁Safety	-11.6946
▁Scandinavia	-11.6946
▁Special	-11.6946
▁Sports	-11.6946
▁Surgeons	-11.6946
▁Symptom	-11.6946
▁Taliban	-11.6946
▁Turban	-11.6946
▁Vanguard	-11.6946
▁WOMAN	-11.6946
▁Wylde	-11.6946
▁acquiesced	-11.6946
▁admonish	-11.6946
▁aesthetic	-11.6946
▁aggression	-11.6946
▁appease	-11.6946
▁appendage	-11.6946
▁archetype	-11.6946
▁bandwagon	-11.6946
▁battalion	-11.6946
▁bizarre	-11.6946
▁bobcat	-11.6946
▁brunette	-11.6946
▁captivating	-11.6946
▁carried	-11.6946
▁chemistry	-11.6946
▁comprise	-11.6946
▁confidence	-11.6946
▁contagious	-11.6946
▁contemplate	-11.6946
▁convenient	-11.6946
▁correlation	-11.6946
▁correspond	-11.6946
▁cortex	-11.6946
▁coworkers	-11.6946
▁credibility	-11.6946
▁delegates	-11.6946
▁democracy	-11.6946
▁descend	-11.6946
▁descriptive	-11.6946
▁dissenters	-11.6946
▁divorce	-11.6946
▁doctrine	-11.6946
▁dynamic	-11.6946
▁encompass	-11.6946
▁enshrine	-11.6946
▁envelope	-11.6946
▁estimation	-11.6946
▁experince	-11.6946
▁extremism	-11.6946
▁fraud	-11.6946
▁gravitate	-11.6946
▁historian	-11.6946
▁humiliated	-11.6946
▁hypothesized	-11.6946
▁hypothetical	-11.6946
▁indifference	-11.6946
▁infrastructure	-11.6946
▁insecurity	-11.6946
▁intensive	-11.6946
▁intimidate	-11.6946
▁liposuction	-11.6946
▁loyalty	-11.6946
▁memories	-11.6946
▁metamorphosis	-11.6946
▁metaphor	-11.6946
▁militia	-11.6946
▁minimal	-11.6946
▁miracle	-11.6946
▁misconception	-11.6946
▁navigate	-11.6946
▁naïve	-11.6946
▁nephew	-11.6946
▁nervosa	-11.6946
▁obnoxious	-11.6946
▁occult	-11.6946
▁participant	-11.6946
▁peculiar	-11.6946
▁pedophelia	-11.6946
▁pejorative	-11.6946
▁perpetual	-11.6946
▁pervert	-11.6946
▁practitioner	-11.6946
▁precedent	-11.6946
▁predetermined	-11.6946
▁predicament	-11.6946
▁proportion	-11.6946
▁pseudonym	-11.6946
▁psychotherapist	-11.6946
▁regime	-11.6946
▁reluctant	-11.6946
▁replies	-11.6946
▁restroom	-11.6946
▁revelation	-11.6946
▁rods	-11.6946
▁scape	-11.6946
▁senator	-11.6946
▁sensitivity	-11.6946
▁silent	-11.6946
▁simplistic	-11.6946
▁skating	-11.6946
▁sleeve	-11.6946
▁solidarity	-11.6946
▁sprinkle	-11.6946
▁stitch	-11.6946
▁stomach	-11.6946
▁subsequent	-11.6946
▁subvert	-11.6946
▁surreptitiously	-11.6946
▁surrogates	-11.6946
▁terrifie	-11.6946
▁territory	-11.6946
▁testimony	-11.6946
▁trunk	-11.6946
▁typology	-11.6946
▁unacceptable	-11.6946
▁unimaginable	-11.6946
▁verboten	-11.6946
▁vlogge	-11.6946
▁voluntarily	-11.6946
▁yesterday	-11.6946
gregious	-11.6946
▁Borysenko	-11.6946
▁French	-11.6946
▁Intelligence	-11.6946
▁Treatment	-11.6946
▁accumulat	-11.6946
▁anguish	-11.6946
▁capacities	-11.6946
▁commercials	-11.6946
▁competitors	-11.6946
▁contempt	-11.6946
▁contract	-11.6946
▁culminat	-11.6946
▁deception	-11.6946
▁entrench	-11.6946
▁feminiz	-11.6946
▁frustrati	-11.6946
▁heartbreaking	-11.6946
▁inhibit	-11.6946
▁invoke	-11.6946
▁preemie	-11.6946
▁savior	-11.6946
▁tampon	-11.6946
Chiara	-11.6946
Explain	-11.6946
autonomy	-11.6946
dimension	-11.6946
intensified	-11.6946
▁Altmetric	-11.6946
▁Discover	-11.6946
▁Historic	-11.6946
▁Legal	-11.6946
▁Literature	-11.6946
▁Medicaid	-11.6946
▁absorb	-11.6946
▁astonish	-11.6946
▁deteriorat	-11.6946
▁enlist	-11.6946
▁flourish	-11.6946
▁harrass	-11.6946
▁hetro	-11.6946
▁infection	-11.6946
▁introspection	-11.6946
▁march	-11.6946
▁miserably	-11.6946
▁newspapers	-11.6946
▁pound	-11.6946
▁prestig	-11.6946
▁prize	-11.6946
▁remedy	-11.6946
🤷🏻‍♀️	-11.6946
▁.01	-11.6946
▁FDA	-11.6946
▁SHRI	-11.6946
▁attire	-11.6946
▁burden	-11.6946
▁economy	-11.6946
▁exacerbat	-11.6946
▁gradual	-11.6946
▁knees	-11.6946
▁paragraph	-11.6946
▁pretense	-11.6946
▁unforgiv	-11.6946
🤔	-11.6946
Emma	-11.6946
specified	-11.6946
▁Diagnosis	-11.6946
▁Examin	-11.6946
▁PSYCH	-11.6946
▁bomb	-11.6946
▁chef	-11.6946
▁iGen	-11.6946
▁latter	-11.6946
▁marvel	-11.6946
▁mild	-11.6946
▁penetrat	-11.6946
▁predispos	-11.6946
▁unnerv	-11.6946
▁wimp	-11.6946
️	-11.6946
Luckily	-11.6946
▁Malone	-11.6946
▁Reality	-11.6946
▁Woke	-11.6946
▁aggregate	-11.6946
▁dabbl	-11.6946
▁depth	-11.6946
▁garment	-11.6946
▁millennials	-11.6946
▁nursing	-11.6946
▁therapies	-11.6946
▁witch	-11.6946
▁Begin	-11.6946
▁Enter	-11.6946
▁diversity	-11.6946
▁excess	-11.6946
▁microscope	-11.6946
▁roof	-11.6946
.”20	-11.6946
ville	-11.6946
▁Israelite	-11.6946
▁Matur	-11.6946
▁espous	-11.6946
▁Henry	-11.6946
▁Midwestern	-11.6946
▁greet	-11.6946
▁motorcycle	-11.6946
▁prosecut	-11.6946
▁0.6	-11.6946
▁fury	-11.6946
▁Kearns	-11.6946
▁deaf	-11.6946
▁awesome	-11.6946
▁bleach	-11.6946
▁ditch	-11.6946
▁fides	-11.6946
▁forehead	-11.6946
▁gigs	-11.6946
703/	-11.6946
enchant	-11.6946
pediatrics	-11.6946
▁rescue	-11.6946
pectator	-11.6946
▁ostracized	-11.6946
▁parcel	-11.6946
▁sperm	-11.6946
▁zone	-11.6946
▁distant	-11.6946
▁kitten	-11.6946
cousin	-11.6946
▁cull	-11.6946
/2019/06/	-11.6946
▁corner	-11.6946
▁defintions	-11.6946
▁physique	-11.6946
▁template	-11.6946
▁10-15	-11.6946
▁Function	-11.6946
▁Pregnancy	-11.6946
▁expense	-11.6946
▁regurgitating	-11.6946
/2015/08/	-11.6946
▁Setting	-11.6946
▁disallow	-11.6946
▁garbage	-11.6946
▁revolution	-11.6946
Suppressi	-11.6946
▁eggs	-11.6946
▁fiction	-11.6946
▁perpetrators	-11.6946
Document	-11.6946
billionaire	-11.6946
▁sutur	-11.6946
▁Facebook	-11.6946
▁eradication	-11.6946
▁pedant	-11.6946
▁selves	-11.6946
▁Community	-11.6946
▁outdated	-11.6946
▁jew	-11.6946
▁omission	-11.6946
▁rising	-11.6946
egon	-11.6946
▁Perspective	-11.6946
TERFs	-11.6946
▁gloss	-11.6946
gencies	-11.6946
▁spark	-11.6946
▁Allah	-11.6946
▁beloved	-11.6946
/2014/09/	-11.6946
▁Clause	-11.6946
▁select	-11.6946
▁Adam	-11.6946
▁Morals	-11.6946
▁pleasure	-11.6946
▁grasp	-11.6946
▁overdose	-11.6946
▁satisfied	-11.6946
▁collective	-11.6946
▁pander	-11.6946
undress	-11.6946
▁testicles	-11.6946
▁Friends	-11.6946
▁elevat	-11.6946
▁excluded	-11.6946
▁lunch	-11.6946
contour	-11.6946
▁spouse	-11.6946
▁spotlight	-11.6946
▁Count	-11.6946
▁marry	-11.6946
HERE	-11.6946
▁coined	-11.6946
▁ethnicities	-11.6946
▁inconvenience	-11.6946
▁curiosity	-11.6946
▁Compari	-11.6946
▁Economist	-11.6946
Comfort	-11.6946
▁twin	-11.6946
▁Edward	-11.6946
▁Academ	-11.6946
/2018/09/	-11.6946
Disagree	-11.6946
▁coddl	-11.6946
▁insanity	-11.6946
▁obligation	-11.6946
▁scum	-11.6946
▁limitations	-11.6946
▁vaccination	-11.6946
▁collection	-11.6947
▁\[	-11.6947
▁ugly	-11.6947
▁1996	-11.6947
▁bald	-11.6947
▁caveat	-11.6947
▁formula	-11.6947
jerk	-11.6947
▁bucket	-11.6947
▁interference	-11.6947
▁purse	-11.6947
forgotten	-11.6947
▁confidential	-11.6947
▁stack	-11.6947
▁CARE	-11.6947
5569	-11.6947
Karlyn	-11.6947
bjs	-11.6947
▁worries	-11.6947
▁cattle	-11.6947
▁unhappiness	-11.6947
Central	-11.6947
rogram	-11.6947
▁height	-11.6947
assurance	-11.6947
▁urgent	-11.6947
▁pediatrician	-11.6947
▁mentors	-11.6947
▁jab	-11.6947
▁spoil	-11.6947
▁sociopaths	-11.6947
▁sponsor	-11.6947
▁castration	-11.6947
▁fleet	-11.6947
▁foul	-11.6947
▁spray	-11.6947
▁reassuring	-11.6947
▁classification	-11.6947
▁flesh	-11.6947
▁intense	-11.6947
/135	-11.6947
▁overtake	-11.6947
”17	-11.6947
▁department	-11.6947
▁2005	-11.6947
▁fifties	-11.6947
▁spirit	-11.6947
▁ancest	-11.6947
▁cookie	-11.6947
▁drew	-11.6947
▁Jeff	-11.6947
▁subscribers	-11.6947
▁1970	-11.6947
▁trickery	-11.6947
▁auto	-11.6947
demic	-11.6947
racial	-11.6947
▁xenophobi	-11.6947
▁tight	-11.6947
ramming	-11.6948
▁Litera	-11.6948
▁grey	-11.6948
▁attain	-11.6948
▁feather	-11.6948
▁disparag	-11.6948
▁bonus	-11.6948
attern	-11.6948
Observ	-11.6948
▁fallacy	-11.6948
▁playbook	-11.6948
▁victimhood	-11.6948
▁portrayal	-11.6948
OST	-11.6948
▁consumers	-11.6948
▁EVERY	-11.6948
▁dogma	-11.6948
▁administration	-11.6948
▁dependency	-11.6948
▁Things	-11.6948
▁carries	-11.6948
▁resistant	-11.6948
flattering	-11.6948
▁squal	-11.6948
▁synonymous	-11.6948
▁uterus	-11.6949
▁THAT	-11.6949
▁liberty	-11.6949
▁admirable	-11.6949
abies	-11.6949
▁overpopulation	-11.6949
▁haircut	-11.6949
▁laughter	-11.6949
▁stealth	-11.6949
▁beef	-11.6949
▁mono	-11.6949
▁civ	-11.6949
177	-11.6949
▁dirt	-11.6949
▁politeness	-11.6949
ranted	-11.6949
▁mytholog	-11.6949
FIN	-11.6949
▁teammate	-11.6949
actic	-11.6949
▁2009	-11.695
▁reassure	-11.695
linguistic	-11.695
lutch	-11.695
▁undeniable	-11.695
▁crew	-11.695
▁unease	-11.695
▁esg	-11.695
▁affliction	-11.695
Zane	-11.695
▁worsened	-11.695
▁cue	-11.695
▁stif	-11.695
▁tenure	-11.695
▁rename	-11.695
nhs	-11.695
ogether	-11.695
▁kindergarteners	-11.695
▁procur	-11.695
▁teeth	-11.695
▁vett	-11.695
▁Reag	-11.6951
▁shameful	-11.6951
mitigations	-11.6951
rivers	-11.6951
▁Will	-11.6951
▁Light	-11.6951
▁reproducing	-11.6951
/1667	-11.6951
▁ortho	-11.6951
▁nail	-11.6951
–15	-11.6952
▁bunk	-11.6952
▁thankfully	-11.6952
hren	-11.6952
▁Worse	-11.6952
▁evaluation	-11.6952
erasure	-11.6952
▁dry	-11.6952
▁goalpost	-11.6952
/2015/0	-11.6952
EO	-11.6953
▁vein	-11.6953
▁esc	-11.6953
▁slightest	-11.6953
▁schizophrenia	-11.6953
▁proponent	-11.6953
▁healer	-11.6953
▁sque	-11.6953
▁mindset	-11.6953
float	-11.6953
▁AOC	-11.6954
volum	-11.6954
▁banish	-11.6954
YING	-11.6954
ancing	-11.6954
▁matr	-11.6954
▁Miller	-11.6954
▁Rock	-11.6954
▁stolen	-11.6954
vah	-11.6954
▁custom	-11.6954
▁BUT	-11.6954
icial	-11.6954
Evans	-11.6954
▁attest	-11.6954
▁nationalism	-11.6954
▁oppressor	-11.6955
UZ	-11.6955
▁vent	-11.6955
▁dorm	-11.6955
▁Later	-11.6955
▁offense	-11.6955
▁Heying	-11.6955
626	-11.6955
▁Wire	-11.6955
Cultur	-11.6955
sica	-11.6955
▁resolved	-11.6955
▁Island	-11.6955
▁fallaci	-11.6956
▁Caus	-11.6956
Agreed	-11.6956
▁retrac	-11.6956
helicopter	-11.6956
▁Opt	-11.6957
▁mold	-11.6957
▁frontier	-11.6957
along	-11.6957
▁Him	-11.6957
▁regretful	-11.6957
Open	-11.6957
▁immers	-11.6958
▁upgrade	-11.6958
TW	-11.6958
minister	-11.6958
▁hedonis	-11.6959
AGER	-11.6959
▁idealiz	-11.6959
BIG	-11.6959
▁Join	-11.6959
▁fend	-11.6959
▁fence	-11.6959
RG	-11.696
▁cold	-11.696
▁hardship	-11.696
▁hesita	-11.696
EQ	-11.696
▁projection	-11.696
appoint	-11.6961
▁achievement	-11.6961
BEN	-11.6961
▁betrayed	-11.6961
▁obsessive	-11.6961
▁Inter	-11.6961
▁hobby	-11.6962
▁nomination	-11.6962
▁realities	-11.6962
▁Net	-11.6963
▁overcame	-11.6964
▁Item	-11.6964
▁signal	-11.6964
▁endorse	-11.6964
▁progression	-11.6964
CEI	-11.6964
cheek	-11.6964
▁squarer	-11.6964
▁worldwide	-11.6964
▁Mao	-11.6965
01/	-11.6965
ismantle	-11.6965
▁definitive	-11.6965
▁scary	-11.6966
▁repost	-11.6966
▁communicate	-11.6966
▁operate	-11.6967
Zh	-11.6967
/103	-11.6967
zz	-11.6967
▁nin	-11.6967
▁fashionable	-11.6967
▁amplifie	-11.6968
▁tyranny	-11.6968
▁estimate	-11.6968
▁tuition	-11.6968
▁bubble	-11.6968
▁comprehend	-11.6968
▁disaster	-11.6968
▁elaborate	-11.6968
▁extradite	-11.6968
▁length	-11.6968
▁plausible	-11.6968
▁prescriptive	-11.6968
▁recession	-11.6968
▁sterilization	-11.6968
▁antagonism	-11.6968
▁baptism	-11.6968
▁fabulous	-11.6968
▁hub	-11.6968
▁pronounced	-11.6969
▁cogniti	-11.6969
▁Cog	-11.6969
Third	-11.6969
away	-11.6969
▁omit	-11.6969
▁Monero	-11.6969
▁Understand	-11.6969
▁Prince	-11.697
▁WHO	-11.697
harvard	-11.697
gatekeeper	-11.697
▁packaging	-11.697
▁fascinating	-11.697
▁neur	-11.6971
▁inclination	-11.6971
▁epic	-11.6971
▁brilliant	-11.6971
▁101	-11.6971
▁NEA	-11.6971
▁Code	-11.6971
▁twerking	-11.6971
▁dust	-11.6971
▁Sexuality	-11.6971
▁58	-11.6971
TQ	-11.6972
rban	-11.6972
▁consultation	-11.6972
▁Equal	-11.6972
QL	-11.6972
▁escalate	-11.6972
▁genocide	-11.6972
▁TED	-11.6973
▁Bra	-11.6973
▁softer	-11.6974
▁Marxism	-11.6974
▁grass	-11.6974
marginali	-11.6974
▁THEY	-11.6974
WO	-11.6975
▁Memo	-11.6975
Best	-11.6975
▁haunt	-11.6976
▁civility	-11.6976
▁realistic	-11.6976
▁cle	-11.6976
310	-11.6976
▁affection	-11.6976
▁alignment	-11.6977
▁67	-11.6977
▁quarter	-11.6977
▁nobodies	-11.6978
▁creator	-11.6978
▁tall	-11.6978
▁library	-11.6978
domina	-11.6978
▁radi	-11.6978
▁dolls	-11.6978
▁slash	-11.6978
▁thru	-11.6979
memo	-11.6979
▁Marxis	-11.6979
▁dye	-11.698
▁dismissal	-11.698
▁speakers	-11.698
▁sexualization	-11.698
mom	-11.6982
vant	-11.6983
eatly	-11.6983
▁NP	-11.6983
REE	-11.6984
acket	-11.6984
▁motivation	-11.6984
▁Inside	-11.6985
▁blurr	-11.6985
▁fist	-11.6985
▁manhood	-11.6985
unch	-11.6985
▁DEI	-11.6986
▁monster	-11.6986
▁Fun	-11.6986
▁Mil	-11.6986
▁rebut	-11.6987
▁overlooked	-11.6988
▁agent	-11.699
▁heroic	-11.699
hypocrisy	-11.699
▁exterminat	-11.699
▁disciplined	-11.699
▁litera	-11.6991
facepalm	-11.6991
▁para	-11.6993
▁grave	-11.6994
▁shorten	-11.6995
▁conception	-11.6995
▁venture	-11.6996
TP	-11.6998
▁stake	-11.6998
▁fitness	-11.6999
Religio	-11.6999
▁prev	-11.7
▁sum	-11.7001
▁2023	-11.7003
▁Transgenderism	-11.7004
▁finalist	-11.7004
▁Hard	-11.7004
▁ec	-11.7005
▁tha	-11.7005
morph	-11.7006
▁barr	-11.7007
▁attributed	-11.7007
▁sooner	-11.7007
hand	-11.7007
▁Th	-11.7007
▁resumed	-11.7008
▁Patient	-11.7008
▁blackrock	-11.7008
▁Problem	-11.7008
▁CTA	-11.7008
▁flawed	-11.7008
▁launch	-11.7008
▁righteous	-11.7008
▁NPR	-11.7008
▁pansexual	-11.7009
▁acutely	-11.7009
▁row	-11.7009
ennis	-11.701
▁Silly	-11.701
isation	-11.7013
▁pleading	-11.7013
▁annoying	-11.7013
▁exhausting	-11.7013
▁discre	-11.7014
▁eugenics	-11.7014
▁impulses	-11.7014
later	-11.7015
Vander	-11.7015
▁dive	-11.7015
▁monitored	-11.7016
▁occasions	-11.7017
Client	-11.7017
▁inadequate	-11.7019
Robert	-11.7019
▁mistaken	-11.702
▁Sho	-11.702
▁PH	-11.702
GRE	-11.702
stas	-11.7021
▁respectfully	-11.7023
▁MO	-11.7023
▁pity	-11.7024
tification	-11.7024
▁outline	-11.7024
acity	-11.7025
vation	-11.7025
city	-11.7026
▁homo	-11.7029
▁sis	-11.7029
▁lore	-11.7031
elated	-11.7033
centrist	-11.7033
▁experimental	-11.7035
▁packe	-11.7036
▁announce	-11.7036
▁industrial	-11.7037
▁wage	-11.7037
▁sma	-11.7038
▁malleab	-11.7043
▁adjusted	-11.7043
▁poisoned	-11.7043
▁bli	-11.7044
▁dumped	-11.7044
▁lever	-11.7044
▁Sw	-11.7044
ruly	-11.7046
▁theft	-11.7046
▁inconsistenc	-11.7047
▁unsee	-11.7048
▁reward	-11.7048
▁ANY	-11.7048
▁Cross	-11.7048
▁Truth	-11.7048
▁fascis	-11.7048
▁54	-11.7049
▁facilitated	-11.705
▁fundamentalist	-11.7051
▁lob	-11.7053
▁shorter	-11.7053
▁Bru	-11.7053
."*	-11.7053
MS	-11.7055
ield	-11.7057
▁blessing	-11.7058
▁frightful	-11.7058
▁makers	-11.7058
▁Honestly	-11.7059
/38	-11.7059
▁consultan	-11.706
▁detrans	-11.706
▁Mother	-11.7062
wall	-11.7064
▁east	-11.7064
▁sy	-11.7064
▁vo	-11.7065
▁examine	-11.7065
▁wrapp	-11.7067
riting	-11.7068
/26	-11.7069
▁cater	-11.707
▁recovered	-11.7072
▁thrilled	-11.7072
▁mad	-11.7078
▁termin	-11.7079
code	-11.708
ORS	-11.7081
▁Hart	-11.7082
▁trad	-11.7083
Sk	-11.7087
▁Depopulation	-11.709
▁Gues	-11.709
▁mask	-11.7091
▁rose	-11.7092
▁weirdo	-11.7092
▁Reading	-11.7097
▁stripp	-11.7098
▁burie	-11.7099
atively	-11.7101
utcomes	-11.7102
▁engineering	-11.7102
▁praying	-11.7102
▁awakening	-11.7103
▁swinging	-11.7103
▁thinnes	-11.7104
▁honesty	-11.7104
▁joyous	-11.7107
▁longest	-11.7107
▁publications	-11.7108
▁eradicated	-11.7112
▁imm	-11.7112
describ	-11.7114
▁helpless	-11.7116
▁chasing	-11.7117
▁accede	-11.7117
▁conceive	-11.7119
▁flatly	-11.7119
youth	-11.7122
DS	-11.7124
▁conflated	-11.713
▁Lmao	-11.7131
▁magazine	-11.7132
god	-11.7135
trogen	-11.7137
▁reversed	-11.7138
▁Hal	-11.7139
▁graduat	-11.7141
▁referral	-11.7142
▁dat	-11.7142
▁ep	-11.7146
into	-11.7146
▁Steve	-11.7151
CK	-11.7151
wart	-11.7153
▁consistently	-11.7156
▁laughed	-11.7156
tifying	-11.7157
▁remind	-11.7157
rso	-11.716
ypo	-11.716
shit	-11.7161
▁programme	-11.7163
Abuse	-11.7165
than	-11.7165
▁spiked	-11.7169
▁owners	-11.7169
privacy	-11.7171
▁theoriz	-11.7172
opped	-11.7172
vangelical	-11.7173
▁Cod	-11.7175
▁2019?	-11.7176
Four	-11.7181
▁infertility	-11.7182
▁37	-11.7182
calculator	-11.7183
▁calculat	-11.7186
▁pod	-11.719
▁tea	-11.7192
▁evaluate	-11.72
▁Iran	-11.7202
▁challenged	-11.7203
Defi	-11.7204
▁completed	-11.7206
▁rott	-11.7206
▁Ok	-11.7207
urriculum	-11.7209
▁emergenc	-11.7212
▁hetero	-11.7214
▁gut	-11.7215
▁2010)	-11.7218
▁mutilate	-11.7219
▁absent	-11.722
”5	-11.722
▁Lov	-11.722
arvard	-11.7222
fox	-11.7244
▁circumcis	-11.7248
▁convers	-11.7248
▁Polic	-11.7248
▁belt	-11.7249
▁detransitioning	-11.725
diverse	-11.725
▁compress	-11.7251
▁shoulders	-11.7252
316	-11.7255
eyed	-11.7258
▁american	-11.7258
▁remarkabl	-11.7259
▁biased	-11.7269
▁Julian	-11.727
▁amendment	-11.7276
▁drugg	-11.7278
▁gayness	-11.728
▁Soon	-11.729
▁Harm	-11.7293
apology	-11.7294
Detransition	-11.7298
▁stare	-11.7306
jam	-11.7308
▁listener	-11.7309
bigoted	-11.7311
▁lesser	-11.7314
▁6:	-11.7316
Referral	-11.7328
oster	-11.7332
▁KNOW	-11.7335
_0	-11.7337
▁comprehensi	-11.7346
LES	-11.7349
▁ingr	-11.7352
▁4:	-11.7357
ool	-11.7363
▁eliminated	-11.7373
▁prepp	-11.7373
true	-11.7374
dison	-11.739
▁AC	-11.739
▁excite	-11.7393
1910	-11.7394
).>	-11.7408
▁fri	-11.7419
Letter	-11.7429
▁$15	-11.7433
▁acknowledged	-11.7436
bye	-11.7441
▁chor	-11.7445
Color	-11.747
▁lesson	-11.7472
bear	-11.7474
guest	-11.7479
▁PRO	-11.748
ndeed	-11.7483
▁defi	-11.7494
▁AL	-11.75
▁locate	-11.7502
▁thro	-11.751
getting	-11.7516
lson	-11.7527
bout	-11.7533
▁foolish	-11.7546
IDENT	-11.7556
▁batt	-11.7573
homo	-11.7574
▁hor	-11.7592
Journalists	-11.7595
currently	-11.7604
bra	-11.7605
unconstitutional	-11.7626
limate	-11.763
Minist	-11.7635
▁erase	-11.7639
implanted	-11.7641
Discuss	-11.7644
demonic	-11.7648
fli	-11.7651
▁Rap	-11.7654
▁Pop	-11.7656
nsic	-11.7701
proposed	-11.7712
Nowhere	-11.7715
iii	-11.7716
▁Referr	-11.773
Governor	-11.7743
▁legaliz	-11.7772
cur	-11.7801
whil	-11.7821
promotion	-11.7829
Teacher	-11.7832
lie	-11.7837
▁micro	-11.785
▁cluster	-11.7857
▁thi	-11.7865
▁quo	-11.789
▁commenter	-11.7902
▁winner	-11.793
arry	-11.7956
elected	-11.7966
▁shi	-11.7966
kar	-11.797
TR	-11.8002
IVE	-11.8015
–4	-11.8041
▁Provide	-11.8045
537	-11.8051
▁achiev	-11.8072
wagg	-11.8079
199	-11.8094
mission	-11.8095
118	-11.8099
latest	-11.8106
▁CHA	-11.8122
genderfluid	-11.8147
backwards	-11.8173
256	-11.8192
▁Ow	-11.8196
▁imper	-11.8201
▁Roy	-11.8209
▁Statistic	-11.8212
constitutional	-11.8224
”21	-11.8263
tell	-11.8271
ranged	-11.8272
–19,	-11.8284
”7	-11.8306
▁7-1	-11.8321
fearful	-11.8324
▁Blo	-11.8335
oct	-11.835
fluent	-11.8366
04-	-11.8376
complaints	-11.8388
verage	-11.8388
▁shad	-11.8407
eviation	-11.8416
dressing	-11.8427
TEN	-11.843
▁purposeful	-11.847
▁Cla	-11.8483
ebr	-11.8486
▁Cover	-11.849
▁insisten	-11.8499
ole	-11.8523
▁impr	-11.8565
–8	-11.8571
▁normaliz	-11.8572
685	-11.8581
▁chase	-11.8641
nvestigative	-11.8661
▁Declin	-11.8689
▁va	-11.8715
lap	-11.8718
▁reserve	-11.8721
▁obscure	-11.8722
▁scramble	-11.8724
▁isolate	-11.8724
anch	-11.8742
prog	-11.8759
PLE	-11.8761
▁Harr	-11.881
arbar	-11.8821
▁spi	-11.8826
▁impe	-11.8832
▁Den	-11.8854
hey	-11.8875
–7	-11.8951
agons	-11.8971
iate	-11.8996
▁span	-11.9008
Statistics	-11.9071
/2018	-11.9102
christ	-11.9113
▁repe	-11.914
Censor	-11.9173
▁integr	-11.9185
prone	-11.9199
▁liberat	-11.9231
034	-11.928
▁1–	-11.9292
▁differentiat	-11.9309
broaden	-11.9325
▁redefin	-11.9379
cla	-11.9419
ppearing	-11.9433
statistics	-11.9433
orbid	-11.9466
▁denigrat	-11.9484
▁invade	-11.9544
▁fram	-11.9578
/11/	-11.9585
▁figur	-11.9594
ody	-11.9633
nyway	-11.9646
▁grie	-11.9653
THER	-11.9654
▁Eu	-11.9659
768	-11.9672
validity	-11.9725
ATION	-11.9733
▁verba	-11.9746
bearable	-11.9753
gene	-11.9759
▁internaliz	-11.9831
lames	-11.9832
▁(2018)	-11.9834
nition	-11.9839
eek	-11.9872
vested	-11.9872
=12	-11.9891
pot	-11.9901
doc	-11.9907
urnish	-11.992
finite	-12.001
grade	-12.0035
356	-12.0064
▁vigil	-12.0101
▁indoctrinate	-12.0124
caus	-12.0138
▁rom	-12.0194
loss	-12.0214
flu	-12.0255
▁realiz	-12.0282
ification	-12.0287
oyal	-12.0294
▁separat	-12.0294
/71	-12.037
purposefully	-12.0374
▁resembl	-12.0459
transcare	-12.048
Expo	-12.0512
▁flex	-12.0551
ssociate	-12.0615
abus	-12.0678
boyish	-12.0689
▁crosse	-12.0697
▁Liv	-12.0701
▁enforc	-12.0743
DR	-12.0793
▁phon	-12.0809
▁scholar	-12.0831
180	-12.0924
▁cloud	-12.0936
▁blam	-12.095
raz	-12.0952
ease	-12.0964
JP	-12.0965
numer	-12.1024
Bye	-12.1027
lock	-12.1047
Any	-12.1054
merits	-12.106
▁pleas	-12.1078
located	-12.1097
▁messag	-12.1099
▁smo	-12.1104
full	-12.1108
lved	-12.1117
lop	-12.1118
▁incorporat	-12.112
Psycholog	-12.1137
oiler	-12.1154
▁par	-12.1173
▁PR	-12.1179
raged	-12.1195
cia	-12.1196
▁$1	-12.1211
LD	-12.1256
▁devi	-12.1256
▁mandat	-12.1272
doors	-12.1289
▁admire	-12.129
▁luna	-12.1292
trails	-12.1317
▁photo	-12.1328
rap	-12.1349
dox	-12.135
89	-12.1373
▁brav	-12.1374
dication	-12.1375
fectious	-12.1385
▁Kla	-12.1424
▁remark	-12.1432
ffects	-12.1442
polit	-12.1452
peak	-12.1454
668	-12.1458
tube	-12.1465
▁Moo	-12.1469
▁plac	-12.147
arily	-12.1492
▁iron	-12.152
RS	-12.1535
▁Differen	-12.1545
▁Eli	-12.1546
▁pic	-12.1562
activist	-12.1571
airline	-12.1571
adolescent	-12.1573
MY	-12.1576
conservative	-12.159
▁diver	-12.1596
Kid	-12.1599
024?	-12.1606
▁Laure	-12.1621
common	-12.1623
▁scru	-12.1639
moves	-12.1644
trum	-12.1647
276	-12.1655
▁genital	-12.1657
trong	-12.1659
rogen	-12.1664
documents	-12.1666
▁connotation	-12.1666
▁Activist	-12.1671
▁Pediatric	-12.1671
▁accommodation	-12.1674
cross	-12.1674
scribe	-12.1676
▁49	-12.1683
sibilities	-12.1688
onald	-12.1689
▁clinician	-12.1689
cute	-12.1701
bridge	-12.1701
OW	-12.1703
▁Jew	-12.1703
acts	-12.1708
▁authoritarian	-12.1712
▁Rate	-12.1716
olerant	-12.1722
▁Lil	-12.1738
▁sale	-12.1739
brit	-12.1742
ffirmative	-12.1747
onica	-12.1748
ccess	-12.1749
PAR	-12.1749
uel	-12.175
▁diverge	-12.1756
910	-12.1757
253	-12.1757
bsurd	-12.1758
bortion	-12.176
fraid	-12.176
nswer	-12.1763
ltered	-12.1771
▁emb	-12.1784
ulimia	-12.1787
otic	-12.1798
echnically	-12.1798
given	-12.1803
often	-12.1803
eradicate	-12.1806
level	-12.1812
ddle	-12.1816
▁bind	-12.1821
▁transfer	-12.1822
ERY	-12.1823
▁prepar	-12.1824
title	-12.183
▁exhaust	-12.1836
▁plead	-12.1836
▁annoy	-12.1836
psych	-12.1838
adequate	-12.184
chemical	-12.1841
▁groom	-12.1842
Polic	-12.1844
examine	-12.1845
Patient	-12.1845
Problem	-12.1845
blackrock	-12.1845
launch	-12.1845
Marxis	-12.1845
pansexual	-12.1845
righteous	-12.1845
NPR	-12.1845
CTA	-12.1845
flawed	-12.1845
disgust	-12.1845
wrapp	-12.1846
▁equivalen	-12.1848
▁overwhelm	-12.1849
▁shoot	-12.1849
valued	-12.1849
introduce	-12.1849
evident	-12.1849
pornography	-12.1849
FTM	-12.1849
Smith	-12.1849
Brain	-12.1849
citizen	-12.185
pack	-12.185
groomer	-12.185
▁relevan	-12.185
▁wrap	-12.185
▁significan	-12.185
brown	-12.1851
Say	-12.1851
Doctor	-12.1851
Blackrock	-12.1852
▁amaz	-12.1852
limits	-12.1852
oppressed	-12.1852
pregnancy	-12.1852
America	-12.1852
bound	-12.1852
inclin	-12.1852
insert	-12.1852
morning	-12.1852
Ellen	-12.1853
draw	-12.1853
error	-12.1853
WPATH	-12.1854
spoken	-12.1854
Source	-12.1854
activism	-12.1854
July	-12.1854
stream	-12.1854
MSM	-12.1854
pause	-12.1854
FOR	-12.1854
worn	-12.1854
credibly	-12.1854
$	-12.1854
assaulted	-12.1854
limited	-12.1855
triggered	-12.1855
Except	-12.1855
Normal	-12.1855
Obviously	-12.1855
peterson	-12.1855
spiritual	-12.1855
▁Bri	-12.1855
scale	-12.1855
Somehow	-12.1855
criminal	-12.1855
censored	-12.1856
College	-12.1856
discrimination	-12.1856
educators	-12.1856
pregnant	-12.1856
psychiatry	-12.1856
Joe	-12.1856
Everything	-12.1856
burn	-12.1856
channel	-12.1856
Drag	-12.1856
damn	-12.1856
alternative	-12.1856
bottom	-12.1856
chaos	-12.1856
federal	-12.1857
favor	-12.1857
Child	-12.1857
disagreement	-12.1857
Another	-12.1857
lazy	-12.1857
contribut	-12.1857
ioneer	-12.1857
Science	-12.1857
Should	-12.1857
violent	-12.1857
fashion	-12.1857
communism	-12.1858
alpha	-12.1858
court	-12.1858
athlete	-12.1858
hospital	-12.1858
murder	-12.1858
David	-12.1858
porn	-12.1858
establish	-12.1858
ideological	-12.1858
practice	-12.1858
check	-12.1858
project	-12.1858
liberal	-12.1858
September	-12.1859
Development	-12.1859
GSA	-12.1859
accurate	-12.1859
lifetime	-12.1859
spectrum	-12.1859
standard	-12.1859
organization	-12.1859
final	-12.1859
provok	-12.1859
Medical	-12.1859
slur	-12.1859
perfect	-12.1859
jobs	-12.1859
black	-12.1859
Part	-12.1859
author	-12.1859
throw	-12.1859
listen	-12.1859
accept	-12.1859
weet	-12.1859
conversation	-12.1859
While	-12.186
doubt	-12.186
breast	-12.186
period	-12.186
division	-12.186
After	-12.186
destroy	-12.186
condition	-12.186
Chase	-12.186
sometimes	-12.186
belief	-12.186
worth	-12.186
interested	-12.186
anxiety	-12.186
teachers	-12.186
progressive	-12.186
justice	-12.186
debate	-12.186
expect	-12.186
consent	-12.186
amount	-12.186
letter	-12.186
Katherine	-12.186
confused	-12.186
exactly	-12.186
system	-12.186
Jordan	-12.186
local	-12.186
college	-12.186
identities	-12.1861
literally	-12.1861
paper	-12.1861
Plan	-12.1861
▁manipulat	-12.1861
suicide	-12.1861
different	-12.1861
Christian	-12.1861
Long	-12.1862
Bru	-12.1862
choice	-12.1862
treated	-12.1862
safety	-12.1862
50%	-12.1863
pray	-12.1863
advice	-12.1863
alcohol	-12.1864
freedom	-12.1864
money	-12.1864
Really	-12.1864
seeking	-12.1864
sexualized	-12.1864
began	-12.1865
acceptance	-12.1866
babies	-12.1866
depression	-12.1866
enforce	-12.1866
decent	-12.1867
vax	-12.1867
data	-12.1867
soul	-12.1868
language	-12.1868
credit	-12.1868
whe	-12.1868
nobody	-12.187
homosexuality	-12.1871
forum	-12.1872
crease	-12.1872
▁dang	-12.1872
With	-12.1873
another	-12.1873
saw	-12.1873
shower	-12.1875
▁overlook	-12.1877
nothing	-12.1877
Suicidal	-12.1877
astectomies	-12.1877
past	-12.1878
/14/	-12.1878
chapter	-12.1879
▁persecut	-12.188
▁detach	-12.188
month	-12.188
▁twist	-12.1881
young	-12.1882
hateful	-12.1882
▁bullie	-12.1882
Get	-12.1883
hour	-12.1884
▁presum	-12.1884
However	-12.1884
Although	-12.1884
harmful	-12.1884
▁slip	-12.1885
type	-12.1885
▁grift	-12.1886
immun	-12.1886
dict	-12.1886
game	-12.1887
ternal	-12.1887
rape	-12.1888
validate	-12.1888
▁confi	-12.1889
cite	-12.1889
▁striv	-12.1889
abilities	-12.189
unted	-12.189
next	-12.1891
Big	-12.1891
reality	-12.1892
plastic	-12.1892
lost	-12.1893
fear	-12.1893
psychiatric	-12.1895
fell	-12.1896
sumption	-12.1896
TV	-12.1896
regular	-12.1897
▁intoleran	-12.1898
See	-12.1898
anything	-12.1899
unning	-12.19
▁margin	-12.19
fast	-12.1901
▁flipp	-12.1902
▁rough	-12.1903
▁Institut	-12.1904
volut	-12.1904
▁unfortunate	-12.1904
▁Serious	-12.1904
host	-12.1904
▁rub	-12.1905
gatekeep	-12.1906
▁complicate	-12.1907
nials	-12.1907
▁pursu	-12.1908
▁crow	-12.1909
▁Literal	-12.1909
mination	-12.1911
effective	-12.1911
distract	-12.1913
▁proph	-12.1913
jack	-12.1914
▁Communis	-12.1915
▁eventual	-12.1916
▁negativ	-12.1916
urred	-12.1918
▁aspir	-12.192
▁subjectiv	-12.1923
utch	-12.1924
ounce	-12.1924
▁colleg	-12.1925
ntentions	-12.1925
▁exercis	-12.1925
tribute	-12.1926
▁hormon	-12.1926
▁Kay	-12.1927
bad	-12.1927
▁googl	-12.1928
▁blur	-12.1928
▁librar	-12.193
▁Bibl	-12.193
▁analog	-12.1931
▁German	-12.1931
▁qualit	-12.1931
▁hysterectom	-12.1931
▁energ	-12.1932
▁Universit	-12.1932
▁perva	-12.1932
palm	-12.1932
▁paranoi	-12.1932
institution	-12.1933
▁hype	-12.1933
▁schizophreni	-12.1934
ubreddits	-12.1934
rkansas	-12.1934
Give	-12.1935
umination	-12.1935
upon	-12.1936
▁propagand	-12.1936
▁oblivio	-12.1936
▁mitigat	-12.1937
▁Short	-12.1937
▁respectfull	-12.1937
Free	-12.1937
urvey	-12.1938
564	-12.1938
▁Mille	-12.1939
uckle	-12.1939
/16679	-12.194
▁Equ	-12.194
▁competiti	-12.194
▁chromosom	-12.194
9/09	-12.194
▁administrat	-12.194
matize	-12.194
▁divisi	-12.194
▁Depress	-12.1941
ular	-12.1941
fact	-12.1941
ictimization	-12.1941
▁diff	-12.1942
lanchard	-12.1942
▁ambigu	-12.1942
▁interject	-12.1942
▁earlie	-12.1942
icators	-12.1942
mpact	-12.1942
nterview	-12.1942
▁bodi	-12.1942
mmediately	-12.1942
▁Promi	-12.1942
AST	-12.1942
▁Admit	-12.1942
▁epiphan	-12.1942
▁vulnerab	-12.1943
Connect	-12.1943
▁nominat	-12.1943
▁obedien	-12.1943
sociopath	-12.1943
depressi	-12.1943
ponsor	-12.1943
ubstance	-12.1943
ariah	-12.1943
xpansive	-12.1943
▁99.9	-12.1944
amiliar	-12.1944
xclusive	-12.1944
xperiences	-12.1944
motions	-12.1944
edophilia	-12.1944
ricio	-12.1944
282	-12.1944
ductive	-12.1944
Previous	-12.1944
urgeries	-12.1944
ebellious	-12.1944
▁celeb	-12.1945
eproduction	-12.1945
werking	-12.1945
orporat	-12.1945
▁empha	-12.1945
onsume	-12.1945
disciplin	-12.1945
ography	-12.1945
ECT	-12.1945
ritical	-12.1945
ajority	-12.1945
▁ineff	-12.1945
▁physi	-12.1945
▁propaga	-12.1945
cienc	-12.1945
feminized	-12.1945
▁Profess	-12.1945
▁testimoni	-12.1945
umbers	-12.1945
▁frag	-12.1945
▁hum	-12.1945
uscle	-12.1945
arrow	-12.1945
▁ostraci	-12.1945
sdlab	-12.1945
ectomy	-12.1945
onstra	-12.1945
▁motor	-12.1945
annica	-12.1945
eleevn	-12.1945
hysiology	-12.1945
solipsis	-12.1945
rimary	-12.1945
▁millennia	-12.1945
Facetune	-12.1945
TATE	-12.1945
gregate	-12.1945
Chang	-12.1945
▁Certain	-12.1945
▁cellophane	-12.1945
▁disgrace	-12.1945
▁obstetric	-12.1945
LLEG	-12.1945
quirky	-12.1945
▁Chandler	-12.1945
▁Independen	-12.1945
▁Issues	-12.1945
▁LOOK	-12.1945
▁Propo	-12.1945
▁Unicorn	-12.1945
▁Visibility	-12.1945
▁acquaint	-12.1945
▁bewildering	-12.1945
▁defensive	-12.1945
▁maxim	-12.1945
▁shrink	-12.1945
▁spectacle	-12.1945
▁twentieth	-12.1945
▁unpleasant	-12.1945
!!!!!	-12.1946
-1617220389	-12.1946
.1534872273	-12.1946
/10.11	-12.1946
/21216800	-12.1946
10508-0	-12.1946
261.2015.1115754	-12.1946
32–33	-12.1946
4198	-12.1946
431740	-12.1946
5841333/.	-12.1946
92.207	-12.1946
Centric	-12.1946
FLAG	-12.1946
Flaherty	-12.1946
GAYATRI	-12.1946
GRAPH	-12.1946
JULIE	-12.1946
JusticeServed	-12.1946
OLOGIST	-12.1946
OPLASTY	-12.1946
Oxford	-12.1946
Phalloplasty	-12.1946
RIST	-12.1946
Safer	-12.1946
Stanford	-12.1946
THERAPIST	-12.1946
Whedbee	-12.1946
bogus	-12.1946
choreograph	-12.1946
exclusion	-12.1946
fetched	-12.1946
gliano	-12.1946
jordan	-12.1946
jorgensen	-12.1946
nbcnew	-12.1946
neurasthenia	-12.1946
prodigious	-12.1946
profjmb	-12.1946
pseudo	-12.1946
repugnant	-12.1946
residency	-12.1946
sycopaths	-12.1946
traddle	-12.1946
whahahahah	-12.1946
°	-12.1946
▁0.000	-12.1946
▁Adulthood	-12.1946
▁Alcorn	-12.1946
▁Anxiety	-12.1946
▁Apparently	-12.1946
▁Aversion	-12.1946
▁BAILEY	-12.1946
▁BLANCHARD	-12.1946
▁Baltimore	-12.1946
▁Behaviour	-12.1946
▁Beyoncé	-12.1946
▁Caucasian	-12.1946
▁Celebrit	-12.1946
▁Colapinto	-12.1946
▁Concordance	-12.1946
▁Dagny	-12.1946
▁Deborah	-12.1946
▁Desmond	-12.1946
▁Devil	-12.1946
▁EDUCAT	-12.1946
▁Educators	-12.1946
▁Essentially	-12.1946
▁Experiment	-12.1946
▁Extremist	-12.1946
▁Florida	-12.1946
▁Gnostic	-12.1946
▁Hoogland	-12.1946
▁Hubbard	-12.1946
▁Hypocrisy	-12.1946
▁ICIJ	-12.1946
▁INTRODUCTION	-12.1946
▁Jennings	-12.1946
▁Levine	-12.1946
▁Leviticus	-12.1946
▁LgBtQ	-12.1946
▁Library	-12.1946
▁McCloskey	-12.1946
▁Noahidism	-12.1946
▁Olympian	-12.1946
▁Oprah	-12.1946
▁Original	-12.1946
▁Ourselves	-12.1946
▁PRIDE	-12.1946
▁PUBERT	-12.1946
▁Quarter	-12.1946
▁RIGHTS	-12.1946
▁Regime	-12.1946
▁Robertson	-12.1946
▁Russell	-12.1946
▁Rutgers	-12.1946
▁Rutigliano	-12.1946
▁STUPID	-12.1946
▁Sacramento	-12.1946
▁Sanchez	-12.1946
▁Survive	-12.1946
▁Tennessee	-12.1946
▁UPDATE	-12.1946
▁Ultimately	-12.1946
▁Victor	-12.1946
▁algorithm	-12.1946
▁anecdotal	-12.1946
▁anecdote	-12.1946
▁animosity	-12.1946
▁anticipate	-12.1946
▁appalling	-12.1946
▁appreciation	-12.1946
▁arrhen	-12.1946
▁arrogan	-12.1946
▁asleep	-12.1946
▁aversion	-12.1946
▁bachelor	-12.1946
▁boast	-12.1946
▁bonkers	-12.1946
▁borrow	-12.1946
▁brigade	-12.1946
▁buffet	-12.1946
▁buzzword	-12.1946
▁cannibal	-12.1946
▁captivated	-12.1946
▁categorical	-12.1946
▁cognizant	-12.1946
▁compliment	-12.1946
▁consternation	-12.1946
▁contraception	-12.1946
▁council	-12.1946
▁covenant	-12.1946
▁creep	-12.1946
▁culprits	-12.1946
▁dawned	-12.1946
▁degradation	-12.1946
▁detract	-12.1946
▁dialect	-12.1946
▁diddlers	-12.1946
▁disheartening	-12.1946
▁dissonance	-12.1946
▁distraught	-12.1946
▁disturbance	-12.1946
▁doldrums	-12.1946
▁dsyphoria	-12.1946
▁efficacy	-12.1946
▁elegant	-12.1946
▁endanger	-12.1946
▁enormous	-12.1946
▁equilibrium	-12.1946
▁etiquette	-12.1946
▁exaggerated	-12.1946
▁excruciating	-12.1946
▁extracted	-12.1946
▁eyebrow	-12.1946
▁favour	-12.1946
▁femininity	-12.1946
▁fertiliz	-12.1946
▁fervor	-12.1946
▁festival	-12.1946
▁flavor	-12.1946
▁frailty	-12.1946
▁freckle	-12.1946
▁grandmother	-12.1946
▁gtfo	-12.1946
▁hallmark	-12.1946
▁heartfelt	-12.1946
▁heedlessness	-12.1946
▁horizon	-12.1946
▁hurdle	-12.1946
▁hustl	-12.1946
▁illustrate	-12.1946
▁impossibility	-12.1946
▁improper	-12.1946
▁inferior	-12.1946
▁instrument	-12.1946
▁intensifies	-12.1946
▁janny	-12.1946
▁jeans	-12.1946
▁kitchen	-12.1946
▁kosher	-12.1946
▁ligament	-12.1946
▁lobotomies	-12.1946
▁ludicrous	-12.1946
▁marijuana	-12.1946
▁mismatch	-12.1946
▁moodiness	-12.1946
▁mound	-12.1946
▁mountain	-12.1946
▁muffin	-12.1946
▁métier	-12.1946
▁necessity	-12.1946
▁neglig	-12.1946
▁negotiated	-12.1946
▁negotiation	-12.1946
▁neurodivergent	-12.1946
▁obliterate	-12.1946
▁parakeet	-12.1946
▁parallel	-12.1946
▁parlance	-12.1946
▁patience	-12.1946
▁pelvis	-12.1946
▁pizza	-12.1946
▁playground	-12.1946
▁plummet	-12.1946
▁precarious	-12.1946
▁proclivit	-12.1946
▁provocative	-12.1946
▁psychopathic	-12.1946
▁psychopaths	-12.1946
▁psyop	-12.1946
▁quadrants	-12.1946
▁reactionaries	-12.1946
▁recieve	-12.1946
▁refrain	-12.1946
▁regurgitate	-12.1946
▁rehash	-12.1946
▁reinvent	-12.1946
▁remorse	-12.1946
▁repri	-12.1946
▁reruns	-12.1946
▁resentment	-12.1946
▁resonate	-12.1946
▁safeguard	-12.1946
▁sauce	-12.1946
▁scheme	-12.1946
▁scratch	-12.1946
▁semester	-12.1946
▁shotgun	-12.1946
▁shrieking	-12.1946
▁shunned	-12.1946
▁skull	-12.1946
▁skyrocketed	-12.1946
▁skyrocketing	-12.1946
▁sleek	-12.1946
▁slender	-12.1946
▁slept	-12.1946
▁sociology	-12.1946
▁specifiers	-12.1946
▁splintered	-12.1946
▁stimuli	-12.1946
▁stubble	-12.1946
▁sturdy	-12.1946
▁subservient	-12.1946
▁supremacist	-12.1946
▁surrogacy	-12.1946
▁suspended	-12.1946
▁syndrome	-12.1946
▁tailor	-12.1946
▁tangible	-12.1946
▁thumb	-12.1946
▁tinder	-12.1946
▁tunnel	-12.1946
▁twenties	-12.1946
▁tyrants	-12.1946
▁ubiquitous	-12.1946
▁unbelievabl	-12.1946
▁unprecedented	-12.1946
▁unpredictab	-12.1946
▁untenable	-12.1946
▁varsity	-12.1946
▁victory	-12.1946
▁villain	-12.1946
▁widow	-12.1946
▁wrenching	-12.1946
▁wrinkled	-12.1946
▁zeitgeist	-12.1946
▁zionists	-12.1946
🏼	-12.1946
▁1984	-12.1946
▁Model	-12.1946
▁charitable	-12.1946
▁decree	-12.1946
▁dunno	-12.1946
▁filter	-12.1946
▁microsurgeon	-12.1946
▁premature	-12.1946
▁snug	-12.1946
burger	-12.1946
dispens	-12.1946
olunteer	-12.1946
recruit	-12.1946
threshold	-12.1946
ttorney	-12.1946
▁1960	-12.1946
▁Avoid	-12.1946
▁Biology	-12.1946
▁Bisexual	-12.1946
▁Blue	-12.1946
▁Campus	-12.1946
▁Doubt	-12.1946
▁Guidestones	-12.1946
▁Million	-12.1946
▁OWN	-12.1946
▁Oppos	-12.1946
▁Qualit	-12.1946
▁SEX	-12.1946
▁SJW	-12.1946
▁Skip	-12.1946
▁Specifically	-12.1946
▁Spread	-12.1946
▁Straw	-12.1946
▁Swimm	-12.1946
▁accompany	-12.1946
▁album	-12.1946
▁apparatus	-12.1946
▁await	-12.1946
▁catalog	-12.1946
▁collaborat	-12.1946
▁determinis	-12.1946
▁dispos	-12.1946
▁dispute	-12.1946
▁dwarf	-12.1946
▁elephant	-12.1946
▁enhance	-12.1946
▁homophobes	-12.1946
▁indroctina	-12.1946
▁infuriat	-12.1946
▁intertwin	-12.1946
▁irritab	-12.1946
▁magneti	-12.1946
▁malarkey	-12.1946
▁modify	-12.1946
▁necessitat	-12.1946
▁occupan	-12.1946
▁occupied	-12.1946
▁parameter	-12.1946
▁parrot	-12.1946
▁plug	-12.1946
▁polarization	-12.1946
▁preserve	-12.1946
▁princess	-12.1946
▁pummel	-12.1946
▁rebrand	-12.1946
▁relaxe	-12.1946
▁ribs	-12.1946
▁sarcas	-12.1946
▁screech	-12.1946
▁scroll	-12.1946
▁steam	-12.1946
▁stirr	-12.1946
▁tragedy	-12.1946
▁transgression	-12.1946
▁tribalis	-12.1946
▁trillion	-12.1946
▁unrelenting	-12.1946
▁vibran	-12.1946
Further	-12.1946
Insurance	-12.1946
azillion	-12.1946
cheap	-12.1946
craft	-12.1946
licate	-12.1946
neccessary	-12.1946
ynecolog	-12.1946
▁Hypothe	-12.1946
▁Identify	-12.1946
▁OCD	-12.1946
▁POV	-12.1946
▁aloud	-12.1946
▁alternate	-12.1946
▁assimilat	-12.1946
▁cascad	-12.1946
▁cripple	-12.1946
▁decipher	-12.1946
▁duration	-12.1946
▁encroach	-12.1946
▁exasperat	-12.1946
▁exhibit	-12.1946
▁masturbat	-12.1946
▁mourn	-12.1946
▁phenomena	-12.1946
▁piano	-12.1946
▁regain	-12.1946
▁sophisticat	-12.1946
▁uniform	-12.1946
jesus	-12.1946
▁Buddh	-12.1946
▁Dumb	-12.1946
▁Federalist	-12.1946
▁Hux	-12.1946
▁abroad	-12.1946
▁bikini	-12.1946
▁client	-12.1946
▁dissipat	-12.1946
▁finish	-12.1946
▁histories	-12.1946
▁ownership	-12.1946
▁terrorists	-12.1946
▁adapt	-12.1946
Hello	-12.1946
regulate	-12.1946
▁24/7	-12.1946
▁Dodger	-12.1946
▁MAP	-12.1946
▁amputate	-12.1946
▁astron	-12.1946
▁decry	-12.1946
▁dominate	-12.1946
▁outlook	-12.1946
▁southie	-12.1946
▁steel	-12.1946
▁taxonomy	-12.1946
▁wicked	-12.1946
▁withdrawal	-12.1946
/2014/	-12.1946
SALLY	-12.1946
ordinat	-12.1946
▁Temp	-12.1946
▁Yael	-12.1946
▁edgy	-12.1946
▁harp	-12.1946
▁neut	-12.1946
▁nihilis	-12.1946
▁spurt	-12.1946
6–221	-12.1946
▁Attempt	-12.1946
▁Feminists	-12.1946
▁furious	-12.1946
▁harvest	-12.1946
▁partisan	-12.1946
▁valor	-12.1946
▁womb	-12.1946
-2013	-12.1946
Kyle	-12.1946
▁bastardized	-12.1946
▁combative	-12.1946
▁stimulat	-12.1946
/2019/03/	-12.1946
3179	-12.1946
6603187998916610	-12.1946
Remov	-12.1946
andalized	-12.1946
charlesmurray	-12.1946
ullivan	-12.1946
▁Shelter	-12.1946
▁Thai	-12.1946
▁contend	-12.1946
▁snag	-12.1946
pension	-12.1946
▁BBC	-12.1946
▁Team	-12.1946
▁coerci	-12.1946
advert	-12.1946
▁Dictionar	-12.1946
▁agreeableness	-12.1946
▁cotton	-12.1946
▁diversion	-12.1946
▁earnest	-12.1946
▁shatter	-12.1946
cheese	-12.1946
▁bleeding	-12.1946
▁erotic	-12.1946
▁petty	-12.1946
BULL	-12.1946
umpers	-12.1946
▁FYI	-12.1946
▁Lilith	-12.1946
▁inviting	-12.1946
▁pitch	-12.1946
Trend	-12.1946
wood	-12.1946
▁Stein	-12.1946
▁guardrail	-12.1946
▁subsidiz	-12.1946
▁choked	-12.1946
▁steer	-12.1946
conspirator	-12.1946
▁breez	-12.1946
▁deleted	-12.1946
▁ladies	-12.1946
▁unstable	-12.1946
▁TRANSITION	-12.1946
▁autocorrect	-12.1946
▁disarm	-12.1946
▁hijack	-12.1946
▁patent	-12.1946
APPEL	-12.1946
Kaiser	-12.1946
butchers	-12.1946
defunded	-12.1946
elegraph	-12.1946
etrosexual	-12.1946
ghast	-12.1946
itchute	-12.1946
michelle	-12.1946
referrals	-12.1946
▁Mindset	-12.1946
▁playmates	-12.1946
Teasing	-12.1946
raduate	-12.1946
▁ACLU	-12.1946
▁keen	-12.1946
▁revile	-12.1946
affl	-12.1946
roj	-12.1946
▁Pornography	-12.1946
▁orphan	-12.1946
▁HAPP	-12.1946
▁TERF	-12.1946
HRC	-12.1946
thirty	-12.1946
deadnam	-12.1946
▁mankind	-12.1946
▁2021.	-12.1946
▁disclosure	-12.1946
▁horrifying	-12.1946
▁claps	-12.1946
▁toleration	-12.1946
▁Sky	-12.1946
▁testimonials	-12.1946
conserv	-12.1946
▁theocracy	-12.1946
EMIC	-12.1946
consensu	-12.1946
▁consortium	-12.1946
▁revolt	-12.1946
▁electronic	-12.1946
▁ranks	-12.1946
▁worm	-12.1946
/2016/0	-12.1946
/2017/09/	-12.1946
7950	-12.1946
TrendMD	-12.1946
▁forgiveness	-12.1946
cooperati	-12.1946
▁Grand	-12.1946
▁guard	-12.1946
underground	-12.1946
▁Patholog	-12.1946
▁radar	-12.1946
▁scholarship	-12.1946
▁$$	-12.1946
▁goose	-12.1946
▁nasty	-12.1946
▁interracial	-12.1946
creative	-12.1946
▁Cali	-12.1946
▁pagents	-12.1946
onelier	-12.1946
iscredited	-12.1946
▁corr	-12.1946
▁anime	-12.1946
▁beneficia	-12.1946
▁Moder	-12.1946
▁14-18	-12.1946
/2019/11/	-12.1946
navratilova	-12.1946
statist	-12.1946
▁toddler	-12.1946
▁gratification	-12.1946
▁Defam	-12.1946
▁summon	-12.1946
▁zoomer	-12.1946
▁optics	-12.1946
▁stumbl	-12.1946
anagan	-12.1946
▁spawn	-12.1946
Explor	-12.1946
obama	-12.1946
▁angel	-12.1946
▁blowback	-12.1946
▁mutation	-12.1946
▁conservatism	-12.1946
sterda	-12.1946
tude	-12.1946
bleeders	-12.1946
prude	-12.1946
▁Parental	-12.1946
=2.16	-12.1946
android	-12.1946
nchorage	-12.1946
omestic	-12.1946
ongregation	-12.1946
▁prejudice	-12.1946
bags	-12.1946
▁Prison	-12.1946
▁mid	-12.1946
▁Gilli	-12.1946
▁REAL	-12.1946
▁demoralization	-12.1946
▁crackhead	-12.1946
▁sideways	-12.1946
▁expletives	-12.1946
▁merch	-12.1946
Fatty	-12.1946
lucid	-12.1946
combat	-12.1946
arnish	-12.1946
swimming	-12.1946
▁Revolution	-12.1946
illusion	-12.1946
overeign	-12.1946
/2019/10/	-12.1946
dennie	-12.1946
rammed	-12.1946
▁Company	-12.1946
nowledge	-12.1947
▁background	-12.1947
epartment	-12.1947
▁mantra	-12.1947
▁superficial	-12.1947
▁cishets	-12.1947
ehova	-12.1947
▁programming	-12.1947
▁automat	-12.1947
▁battery	-12.1947
▁Grey	-12.1947
phere	-12.1947
▁fibro	-12.1947
▁etiolog	-12.1947
▁tele	-12.1947
ecision	-12.1947
▁joyride	-12.1947
loqu	-12.1947
▁shitshow	-12.1947
▁Nut	-12.1947
▁framework	-12.1947
urging	-12.1947
▁(2015)	-12.1947
▁sector	-12.1947
assets	-12.1947
▁counterpart	-12.1947
joan	-12.1947
▁psyche	-12.1947
▁tension	-12.1947
Calendar	-12.1947
▁border	-12.1947
▁LOVE	-12.1947
▁Lord	-12.1947
0218	-12.1947
▁graphic	-12.1947
▁customized	-12.1947
▁spanish	-12.1947
/2019/08/	-12.1947
mpolitic	-12.1947
▁curriculum	-12.1947
/112	-12.1947
2/20/	-12.1947
hypocritical	-12.1947
▁idgaf	-12.1947
animate	-12.1947
▁congratulation	-12.1947
▁GenderSpectrum	-12.1947
▁translation	-12.1947
Phil	-12.1947
▁anthropo	-12.1947
▁criminalize	-12.1947
ritis	-12.1947
▁Riot	-12.1947
raham	-12.1947
▁99.99	-12.1947
.158	-12.1947
1981	-12.1947
590	-12.1947
▁Boogeyman	-12.1947
▁procla	-12.1947
garet	-12.1947
▁dread	-12.1948
▁erod	-12.1948
▁verify	-12.1948
zzled	-12.1948
kelet	-12.1948
▁Psycho	-12.1948
▁crossdressing	-12.1948
▁weaponized	-12.1948
▁pariah	-12.1948
ewB	-12.1948
▁supervision	-12.1948
▁[42:	-12.1948
schema	-12.1948
▁Burn	-12.1948
▁ontology	-12.1948
Abnormal	-12.1948
llied	-12.1948
▁scripture	-12.1948
▁Cosmopolitan	-12.1948
▁native	-12.1948
thesized	-12.1948
▁assistance	-12.1948
▁awry	-12.1948
▁depop	-12.1948
▁Response	-12.1948
▁seaking	-12.1948
▁receptive	-12.1948
egative	-12.1948
▁Vogue	-12.1948
▁piti	-12.1948
▁Emmy	-12.1948
▁slack	-12.1948
hannon	-12.1948
▁noise	-12.1948
▁1995	-12.1948
▁recept	-12.1948
▁suburb	-12.1948
uillette	-12.1948
▁Margo	-12.1948
▁epiphanies	-12.1949
▁Break	-12.1949
▁8–1	-12.1949
▁1952	-12.1949
–41	-12.1949
▁upsides	-12.1949
▁Bones	-12.1949
▁5–6	-12.1949
▁scold	-12.1949
▁oddities	-12.1949
▁logo	-12.1949
▁Ethiopian	-12.1949
▁JUST	-12.1949
▁explanatory	-12.1949
▁Born	-12.1949
CDC	-12.1949
▁Circu	-12.1949
▁cabb	-12.1949
▁Persistence	-12.1949
▁apple	-12.1949
▁bike	-12.1949
▁obedience	-12.1949
▁aisle	-12.1949
▁void	-12.1949
▁ambiguity	-12.1949
logging	-12.1949
falsifi	-12.1949
athetic	-12.1949
calif	-12.1949
▁depart	-12.1949
▁substanti	-12.1949
▁idc	-12.1949
victimization	-12.1949
▁Tree	-12.195
▁Insta	-12.195
▁Happen	-12.195
▁Bigot	-12.195
▁swo	-12.195
▁Ride	-12.195
▁rob	-12.195
rinthi	-12.195
▁defiance	-12.195
▁infant	-12.195
▁traumatize	-12.195
confronting	-12.195
nstrate	-12.195
▁mice	-12.195
▁summar	-12.195
07–1	-12.195
▁(2009	-12.195
19-12	-12.195
RCH	-12.195
▁barrel	-12.195
▁prodding	-12.195
▁Grace	-12.195
–50	-12.195
▁Happ	-12.195
▁Bobb	-12.195
▁interjection	-12.195
▁intru	-12.195
▁Anorexia	-12.195
unisex	-12.195
▁misinformed	-12.195
▁romanticized	-12.1951
▁2001	-12.1951
▁Anger	-12.1951
680	-12.1951
▁Depression	-12.1951
COM	-12.1951
reedom	-12.1951
▁BPD	-12.1951
▁flash	-12.1951
▁Demon	-12.1951
–36	-12.1951
▁Fri	-12.1951
lihood	-12.1951
mericanitis	-12.1951
▁reconnect	-12.1951
▁separation	-12.1951
117	-12.1951
▁Jail	-12.1951
679	-12.1951
▁extensive	-12.1951
medicating	-12.1951
▁forgot	-12.1951
▁hospitalization	-12.1952
owels	-12.1952
▁acknowledgment	-12.1952
–88	-12.1952
▁lung	-12.1952
485	-12.1952
▁idol	-12.1952
▁plate	-12.1952
▁Resource	-12.1952
▁Jung	-12.1952
▁Kong	-12.1952
▁rationalization	-12.1952
▁jealousy	-12.1952
949	-12.1952
ammad	-12.1952
Spot	-12.1952
▁duped	-12.1952
▁endocrinology	-12.1952
55–	-12.1952
yelled	-12.1952
eval	-12.1952
▁upheld	-12.1952
▁EPI	-12.1952
▁snap	-12.1953
▁slavery	-12.1953
▁Femini	-12.1953
▁psychopathology	-12.1953
▁PROB	-12.1953
975	-12.1953
▁entities	-12.1953
▁sinning	-12.1953
▁graduation	-12.1953
▁deplorable	-12.1953
ENN	-12.1953
▁expansive	-12.1953
ACK	-12.1953
31/	-12.1953
646	-12.1953
limb	-12.1953
▁envi	-12.1953
▁Mail	-12.1953
▁binge	-12.1953
▁recourse	-12.1953
▁confession	-12.1953
▁fixating	-12.1953
AAP	-12.1954
HARD	-12.1954
▁68	-12.1954
▁injury	-12.1954
▁poet	-12.1954
▁pap	-12.1954
AGA	-12.1954
▁moneymaker	-12.1954
▁ABC	-12.1954
icide	-12.1954
esults	-12.1954
▁boundary	-12.1954
Deep	-12.1954
utilat	-12.1954
▁christianity	-12.1954
▁Shorter	-12.1955
▁barter	-12.1955
▁Twist	-12.1955
ETH	-12.1955
▁punk	-12.1955
▁oblivion	-12.1955
decriminalize	-12.1955
584	-12.1955
▁bedro	-12.1955
▁eachother	-12.1955
▁submission	-12.1955
▁Internal	-12.1955
▁Hill	-12.1955
▁217	-12.1955
▁spill	-12.1955
Text	-12.1956
▁catty	-12.1956
▁notorious	-12.1956
▁emergen	-12.1956
▁Guil	-12.1956
htm	-12.1956
▁Pedo	-12.1956
▁glorif	-12.1956
ewis	-12.1956
▁MAR	-12.1956
nstein	-12.1956
▁production	-12.1957
=61	-12.1957
onflict	-12.1957
methodological	-12.1957
▁HEL	-12.1957
▁coding	-12.1957
05/	-12.1957
▁rulers	-12.1957
utogynephilia	-12.1957
▁disbelieve	-12.1957
▁Joan	-12.1958
▁2022	-12.1958
▁Shit	-12.1958
▁Fast	-12.1958
AMA	-12.1958
▁Meli	-12.1958
ONES	-12.1958
▁Goodman	-12.1958
▁digest	-12.1958
▁Egyptian	-12.1958
▁Tale	-12.1958
▁Lang	-12.1958
▁paranoia	-12.1959
▁incons	-12.1959
093	-12.1959
▁Kill	-12.1959
▁flare	-12.1959
▁DOC	-12.1959
▁rationalist	-12.1959
emote	-12.1959
▁Maz	-12.1959
starving	-12.1959
▁protesters	-12.196
british	-12.196
▁stall	-12.196
merci	-12.196
enuine	-12.196
▁judgement	-12.196
▁dau	-12.196
rumination	-12.196
▁XY	-12.196
icating	-12.1961
865	-12.1961
▁pageant	-12.1961
▁relish	-12.1961
▁pew	-12.1961
regulation	-12.1961
▁estate	-12.1961
▁chip	-12.1961
▁ramp	-12.1961
None	-12.1961
▁Creator	-12.1962
▁groin	-12.1962
▁Wade	-12.1962
512	-12.1962
▁trees	-12.1963
overty	-12.1963
ulum	-12.1963
itten	-12.1963
▁Confused	-12.1963
▁eaters	-12.1963
7):	-12.1963
470	-12.1963
▁overrepresent	-12.1964
▁shill	-12.1964
▁facilitat	-12.1964
affe	-12.1964
Reductio	-12.1964
▁lament	-12.1964
▁parenthood	-12.1964
\_0	-12.1965
umblr	-12.1965
▁abhorre	-12.1965
lves	-12.1965
▁Socialism	-12.1966
▁subway	-12.1966
▁exercise	-12.1966
▁Kath	-12.1966
8(	-12.1966
gret	-12.1966
▁brim	-12.1966
▁veh	-12.1967
▁compuls	-12.1967
▁specialness	-12.1968
Homophobia	-12.1968
▁reactionary	-12.1968
yber	-12.1968
▁erect	-12.1968
339	-12.1968
wQ	-12.1968
oviet	-12.1969
▁Spr	-12.1969
▁Laz	-12.197
HELEN	-12.197
emre	-12.197
920	-12.197
ERO	-12.197
_2016	-12.197
laska	-12.1971
▁proverb	-12.1971
/55/1	-12.1971
▁totem	-12.1971
lvan	-12.1971
▁homework	-12.1971
restrictions	-12.1971
eks	-12.1971
▁subside	-12.1972
▁domination	-12.1972
oice	-12.1972
soros	-12.1972
▁Catholicism	-12.1972
▁curb	-12.1972
1313	-12.1973
▁Drug	-12.1974
ALE	-12.1974
ourteen	-12.1974
▁FAL	-12.1974
LW	-12.1974
▁yea	-12.1974
▁customi	-12.1974
▁urinal	-12.1974
▁Few	-12.1974
▁breathtaking	-12.1975
742	-12.1975
▁unnatural	-12.1975
▁menace	-12.1975
▁blink	-12.1975
wash	-12.1976
OH	-12.1976
Other	-12.1976
ensic	-12.1976
▁fau	-12.1976
▁Communism	-12.1976
▁Stre	-12.1977
▁Leftist	-12.1977
▁motherhood	-12.1977
▁Rather	-12.1977
ricious	-12.1977
construe	-12.1977
membran	-12.1977
▁park	-12.1977
▁Visi	-12.1977
lood	-12.1977
Hur	-12.1977
▁bath	-12.1978
iety	-12.1979
▁polye	-12.1979
▁deff	-12.1979
▁demo	-12.1979
▁conformity	-12.1979
▁curtai	-12.1979
▁denier	-12.198
Traits	-12.198
▁Fear	-12.198
Anti	-12.198
▁Low	-12.198
▁Tra	-12.1981
▁manifestation	-12.1981
▁Transphobic	-12.1981
▁pile	-12.1982
roud	-12.1982
rapists	-12.1983
IMF	-12.1983
▁fetishes	-12.1983
▁relies	-12.1983
▁sickness	-12.1983
▁reflection	-12.1985
▁secular	-12.1985
▁alcoholic	-12.1986
Yz	-12.1986
awk	-12.1986
▁cei	-12.1986
cule	-12.1987
▁blackout	-12.1987
▁scarr	-12.1988
▁preoccupie	-12.1988
egan	-12.1989
etite	-12.1989
subpar	-12.1989
petition	-12.199
▁Roth	-12.199
▁JO	-12.199
verge	-12.199
mmunity	-12.1991
ophobic	-12.1991
rustees	-12.1991
quadr	-12.1992
▁drain	-12.1993
imf	-12.1993
▁impo	-12.1994
essin	-12.1994
▁lobbyist	-12.1995
8&	-12.1995
▁menses	-12.1996
▁newborn	-12.1996
▁Sick	-12.1997
▁69	-12.1997
▁legitimiz	-12.1998
▁imbibe	-12.1999
vag	-12.1999
companionability	-12.1999
▁10.1	-12.1999
▁fift	-12.1999
fulness	-12.2
▁armor	-12.2
OC	-12.2
▁entic	-12.2
gland	-12.2
▁dominan	-12.2001
▁Participati	-12.2001
3094	-12.2001
cast	-12.2001
▁NE	-12.2001
▁bob	-12.2002
▁reck	-12.2003
▁End	-12.2003
▁GD	-12.2003
▁prophe	-12.2006
ssenger	-12.2006
▁Cleve	-12.2006
▁Interpersonal	-12.2006
▁rally	-12.2006
▁determinati	-12.2007
99.	-12.2007
SK	-12.2009
/431	-12.2009
PD	-12.2009
imply	-12.201
▁hive	-12.201
DG	-12.2011
▁adoption	-12.2011
▁acce	-12.2011
lims	-12.2013
glorious	-12.2013
/2018/12/	-12.2014
/@	-12.2014
landmark	-12.2015
▁Newman	-12.2015
NDER	-12.2016
▁realization	-12.2016
▁Snow	-12.2018
php	-12.2018
▁diagnos	-12.2018
▁Action	-12.2019
nobos	-12.202
xie	-12.202
/2011	-12.2022
▁lik	-12.2023
148	-12.2023
▁Tate	-12.2023
▁deeds	-12.2024
Ignor	-12.2025
vogue	-12.2025
▁Bog	-12.2025
▁murderer	-12.2026
▁Tour	-12.2027
▁Manage	-12.2027
▁heterosexuality	-12.2027
▁indictm	-12.2027
NA	-12.2028
▁mac	-12.2029
weaponiz	-12.203
kemi	-12.2031
ertifi	-12.2031
CY	-12.2031
▁Seven	-12.2032
congru	-12.2034
▁horr	-12.2034
AYA	-12.2035
▁Endocrinolog	-12.2035
▁cave	-12.2036
Sir	-12.2036
rifying	-12.204
▁provoke	-12.2041
urse	-12.2043
▁swapp	-12.2044
▁opti	-12.2045
erations	-12.2046
▁Congre	-12.2046
ference	-12.2047
nternet	-12.2051
slaught	-12.2053
STR	-12.2055
▁Arc	-12.2056
determinat	-12.206
esistance	-12.2061
rgency	-12.2062
raging	-12.2063
ynard	-12.2063
▁designate	-12.2065
▁dish	-12.2065
nthetic	-12.2066
Thorax	-12.2069
umbo	-12.207
zan	-12.207
▁toleran	-12.207
Make	-12.2074
tolerance	-12.2075
ecede	-12.2075
▁officer	-12.2077
VERY	-12.2077
allowe	-12.2079
873	-12.208
▁destin	-12.2083
▁Marc	-12.2084
▁Earther	-12.2089
Help	-12.2089
ulation	-12.2097
▁gi	-12.2101
ridgehead	-12.2103
bulimia	-12.2107
junk	-12.2112
scope	-12.2114
146	-12.212
TLY	-12.212
heter	-12.2122
tape	-12.2122
▁hermaphrodi	-12.2127
▁suprem	-12.213
ipper	-12.2131
▁dy	-12.2132
epsis	-12.2135
▁sorrow	-12.2143
urek	-12.2145
Haters	-12.2149
iends	-12.2156
osis	-12.2162
▁embol	-12.2163
2207	-12.2165
7062	-12.2175
88–201	-12.2177
pologies	-12.218
lawsuit	-12.2182
actured	-12.2185
authoritarianism	-12.2185
tripping	-12.2186
43)	-12.2191
▁instabilit	-12.2193
Epidemiolog	-12.2199
Alright	-12.2199
▁sicko	-12.2203
▁possibil	-12.2206
NOW	-12.2219
eeling	-12.2224
putations	-12.2226
facebook	-12.2233
conventional	-12.2233
WOR	-12.2242
▁Affect	-12.2243
▁periodical	-12.2244
fiance	-12.226
Donald	-12.2269
pop	-12.2272
▁scrub	-12.2274
▁2013)	-12.2274
chel	-12.2274
licit	-12.2275
▁2008)	-12.2277
addictive	-12.2287
▁aggr	-12.2303
▁2024	-12.2305
Meet	-12.2308
deserving	-12.2311
▁scor	-12.2328
chet	-12.2331
548	-12.2333
18)	-12.2334
circuit	-12.2362
▁Shak	-12.2373
INF	-12.2388
▁2000)	-12.2397
aste	-12.2399
liza	-12.2401
/2018/0	-12.2402
prolife	-12.2404
▁ironic	-12.2408
▁Silenc	-12.2411
finance	-12.2425
oX	-12.243
😂	-13.1859
§	-13.1946
è	-13.1946
ó	-13.1946
ü	-13.1946
ū	-13.1946
‍	-13.1946
≠	-13.1946
⚧	-13.1946
￼	-13.1946
ǵ	-13.1946
🏻	-13.1946
🤯	-14.5494
🤦	-14.5495
🤡	-14.5496
🙏	-14.5497
🤷	-14.5498
ï	-14.5499
<	-14.55
♀	-14.5501
🤣	-14.5502
„	-14.5503
